the 35971725
, 35090460
. 30376729
to 18316771
of 17357865
a 16680345
and 15870887
in 14389199
" 8916641
's 6885506
that 6659327
for 6515121
on 6327211
is 5945852
The 5271806
was 4688876
with 4512876
said 4302279
as 4075693
at 3894304
it 3610917
by 3519372
from 3221663
an 3206119
be 3166915
he 3057822
have 3008864
has 2999117
are 2907484
his 2890969
) 2251007
not 2246995
( 2233604
will 2163240
I 2137996
who 2073853
or 2007295
had 2004190
their 1904467
-- 1889622
were 1853221
they 1832501
but 1809590
its 1744806
been 1743720
this 1733354
more 1674018
which 1651643
would 1521994
about 1467324
one 1457525
up 1384004
-@@ 1353706
: 1353262
S@@ 1347854
re@@ 1339694
after 1338196
out 1323587
$ 1273718
year 1264582
than 1257940
also 1181791
her 1181273
't 1170454
un@@ 1130360
you 1125976
B@@ 1115601
A 1098737
It 1096863
when 1096850
M@@ 1087627
in@@ 1086922
all 1082932
s@@ 1077440
- 1063236
t@@ 1048457
over 1042985
C@@ 1041522
two 1031541
T@@ 1027867
es 1026094
people 1024257
can 1020135
time 1011384
ing 1011114
P@@ 992533
last 984522
L@@ 983095
first 982055
ers 981854
into 974621
But 971963
ation 965382
we 951346
er 950220
He 946264
' 946168
In 926375
D@@ 912381
new 907242
other 906499
d@@ 903203
she 902447
p@@ 898513
t 883087
F@@ 875360
K@@ 871436
H@@ 868424
years 867944
A@@ 866557
could 860321
b@@ 856339
ed 850717
R@@ 835561
there 835512
i 831086
? 826596
g@@ 817798
G@@ 812992
some 812753
s 809542
e 805895
o 794058
E@@ 785350
al 783918
e@@ 771671
k@@ 767192
N@@ 765428
y 746387
them 743061
no 738782
if 735702
so 727065
percent 706903
m@@ 706775
c@@ 702949
W@@ 697065
only 692308
f@@ 690176
what 688290
government 687605
en@@ 683711
million 681396
ate 667592
like 667032
ated 666875
just 658608
l@@ 655896
him 648617
v@@ 648197
h@@ 644929
U.S. 643127
most 640608
ted 639992
before 633968
do 629932
n@@ 623850
m 619126
now 618104
because 617450
r@@ 615617
man 613450
ting 613189
an@@ 604605
y@@ 604556
i@@ 602664
er@@ 601915
our 599872
way 599546
where 595083
st@@ 594779
off 590038
three 589597
o@@ 589475
; 582104
back 580792
being 576932
down 573191
w@@ 568689
against 566285
made 555917
Obama 552834
at@@ 543176
1 540259
Mr 538004
u@@ 537111
many 534724
di@@ 534660
week 534605
any 530401
am@@ 530078
ch@@ 528816
on@@ 528660
New 523978
V@@ 523453
I@@ 521118
ts 518612
it@@ 518196
per 516344
th@@ 515689
O@@ 513249
n 511053
since 509964
d 507134
while 504080
get 503266
ar@@ 502028
el@@ 501603
ri@@ 497951
us 497622
told 496360
world 496188
day 494693
/ 494132
es@@ 491191
says 489701
even 488073
J@@ 486843
through 486658
such 482412
make 481943
We 481025
how 480323
ti@@ 479904
£ 479145
company 479124
k 479112
say 477977
al@@ 477794
home 477000
my 472524
able 472189
those 471944
or@@ 469673
2 469193
may 465282
p 465100
end 455049
en 454478
son 453466
ter 448910
should 444150
then 443978
This 442939
ad@@ 441710
work 440476
a@@ 440242
much 438637
between 436048
z@@ 435099
including 434620
country 433992
still 433712
state 432125
well 430741
li@@ 427913
take 425789
did 424188
ly 423234
during 422717
3@@ 421718
as@@ 421270
ations 417989
police 416929
And 416431
sh@@ 415757
age 415755
under 414867
ro@@ 414104
j@@ 411865
They 411397
next 409190
dis@@ 405255
ating 403817
tion 402991
se 402565
led 399567
th 398968
em@@ 398674
e-@@ 397437
10 397185
de@@ 394994
United 391690
4@@ 391204
ant 389471
your 387129
st 384540
3 381213
second 380802
found 379611
part 373806
go 373067
sp@@ 372412
set 371335
public 367765
former 367373
4 366143
month 365871
Mr. 365608
American 365157
billion 364889
me 364817
very 364187
g 361532
US 361232
ac@@ 359113
.@@ 359010
lo@@ 358399
around 357687
U@@ 357362
four 356950
officials 354476
own 353363
ag@@ 353287
ine 349941
2@@ 349224
ex@@ 348820
5 346120
group 343619
market 343196
9@@ 340765
ic@@ 339858
ic 339393
ent 339224
ous 338585
ds 338583
another 337999
President 337780
is@@ 336637
help 335605
l 335250
im@@ 334329
going 332550
ab@@ 332465
used 332446
el 332356
There 332311
5@@ 331778
see 330239
6 329824
Tuesday 329675
both 328912
tions 328714
months 328021
si@@ 326289
ans 326056
these 324802
less 324321
Monday 322923
il@@ 322210
game 321981
don 320942
Wednesday 319113
ally 318235
team 317008
co@@ 316968
children 316532
left 316404
et@@ 315871
good 315289
Friday 314709
tr@@ 313279
7 313037
ol@@ 312909
als 312676
Al@@ 312666
% 312556
money 312163
Thursday 311828
If 310209
report 308766
use 308641
ul@@ 308279
night 306648
too 306323
long 304597
five 304164
York 304117
That 303677
season 303649
om@@ 302735
same 302475
days 302417
expected 302257
reported 300802
think 300651
20 300027
ou@@ 299029
6@@ 298484
ed@@ 297901
Mar@@ 297621
pre@@ 297548
life 297293
Ch@@ 297249
right 296532
place 295319
cent 294989
president 294441
business 293866
number 293326
con@@ 293165
8 292359
top 291276
op@@ 290935
ks 289413
b 287753
pro@@ 287700
AP 286962
ings 286651
7@@ 286284
id@@ 286196
be@@ 286082
called 285315
su@@ 284892
won 284450
king 283859
30 283763
men 281663
ar 280776
financial 280124
bu@@ 280064
ago 279321
family 278878
As 278578
... 276647
ha@@ 276480
show 276475
Con@@ 276097
China 275749
according 275341
St@@ 274151
need 273945
She 273352
le 273188
sc@@ 272692
come 272569
um@@ 272459
le@@ 272183
case 271922
side 271224
under@@ 271089
high 270528
Y@@ 269115
put 269047
health 268953
x 268690
Z@@ 267248
red 266805
ance 266528
over@@ 266208
early 265263
took 265012
points 264849
po@@ 264453
States 264427
ton 264388
city 264295
ors 263799
least 263450
might 263195
am 262834
-year-old 262496
8@@ 261215
few 261114
're 261013
want 261002
know 260478
came 259862
u 258990
Sunday 258257
run 258015
ir@@ 257651
ec@@ 257020
later 256816
ap@@ 255317
support 255108
past 254825
se@@ 254214
deal 253811
2008 251930
D 251541
military 251006
For 250810
ing@@ 250489
per@@ 249441
C 249440
away 248785
without 247983
best 247337
la@@ 246869
already 246353
1@@ 246183
win 245934
! 245909
2009 245442
quarter 245388
In@@ 245041
et 244785
old 244333
House 244164
point 243877
political 243619
gr@@ 243354
system 243316
um 242781
ur@@ 241935
British 241855
third 240889
au@@ 240885
ry 240192
out@@ 239965
each 239952
until 239913
six 239853
est 239630
9 239620
pl@@ 239451
economic 238688
court 238039
whether 237297
companies 236874
ding 235304
South 234936
pe@@ 234528
line 234333
Saturday 233120
power 232918
play 232849
to@@ 232768
among 232440
school 232240
ence 231703
far 231519
party 231353
added 231174
end@@ 231011
today 230663
half 230627
never 230542
qu@@ 230248
women 230110
ates 229423
ling 229423
cl@@ 229276
security 229006
and@@ 228983
head 226749
Re@@ 226687
mo@@ 226167
pay 225915
19@@ 225230
several 225142
recent 224913
1.@@ 224403
ea@@ 224250
vi@@ 223868
got 223705
economy 223661
E 223545
bl@@ 223201
John 223164
news 222477
ch 222277
care 222235
here 222223
O 222221
little 222173
information 222078
ary 221980
no@@ 221595
sing 221593
killed 221408
members 220992
London 220849
lead 220696
ter@@ 220372
campaign 220104
Ar@@ 219733
15 219040
der 218975
hit 218724
& 218505
local 218128
S 217622
making 217435
ment 216631
ses 216573
ak@@ 216528
11 216509
land 216084
Washington 215756
12 215720
ties 215474
50 215405
every 215213
better 214885
At 214875
ity 214761
ut@@ 213276
0@@ 213127
big 213042
house 212695
chief 212592
fl@@ 212301
change 212099
--@@ 212089
plan 211937
bo@@ 211789
ep@@ 211693
ever 211160
law 210738
held 210704
final 210500
went 210357
bi@@ 210208
start 210140
Mc@@ 209859
likely 208766
br@@ 208168
does 208012
taken 207904
based 207221
become 206830
ay 206395
ve 206365
sales 206119
major 206078
An@@ 206047
On 206009
war 205969
car 205674
area 205414
par@@ 205319
ob@@ 205257
ded 203436
ent@@ 203374
ren@@ 201882
Sh@@ 201796
inter@@ 201668
ty 201282
announced 200369
times 199543
2007 199110
z 199082
America 198702
When 198565
c 198152
election 198133
across 198045
ai@@ 197901
seen 197564
North 197550
plans 197394
One 197078
prices 196601
mon@@ 196464
mar@@ 196131
death 195885
ked 195722
give 195321
min@@ 195287
again 194666
March 194016
ge 193466
You 193348
've 192798
known 192726
ne@@ 192542
ley 192518
Iraq 192455
lost 192388
though 192110
England 191704
ble 191660
oil 191050
National 190859
office 190540
countries 190217
ker 189790
service 189377
must 189099
ev@@ 188983
bank 188767
given 188599
find 188341
industry 188266
enough 188216
sub@@ 187946
les 187820
ang@@ 187453
gu@@ 187448
national 187312
using 187263
weeks 186474
tax 185680
ver@@ 185549
official 185539
global 185320
ra@@ 185232
taking 185129
died 185090
for@@ 184537
statement 184280
field 184183
European 183897
25 183864
near 183150
cut 183059
small 183048
international 182922
move 182726
ons 182604
really 182100
record 181235
late 180831
free 180776
ness 180577
ents 180435
Ro@@ 179485
working 179352
ey 179261
Bush 179166
de 178805
ay@@ 178550
res 178465
De@@ 178283
close 178281
World 177906
water 177856
site 177711
y-@@ 177432
ability 177418
ni@@ 177350
face 176971
ful 176650
earlier 176518
spokesman 176282
services 175949
look 175780
ho@@ 175490
job 175380
share 175268
body 174979
leader 174910
decision 174879
keep 174764
ot@@ 174106
car@@ 174020
P 173782
due 173774
City 173567
T 172807
future 172801
sed 172663
having 172456
saying 172422
UK 172085
University 171999
d-@@ 171384
After 171149
com@@ 171111
Britain 171063
nearly 170712
His 170492
tive 170425
rate 170127
federal 169828
hi@@ 169688
meeting 169683
something 169576
cost 169358
ard 169322
thing 169246
ure 169209
asked 168956
ement 168676
Police 168543
ves 168298
director 168297
whose 168258
June 168227
program 168207
young 167404
av@@ 167201
2.@@ 166643
woman 166436
'm 166375
ies 166253
hours 165949
West 165892
ali@@ 165831
Clinton 165315
ying 165284
capital 165091
began 164771
further 164670
So 164410
ill@@ 164063
0.@@ 163614
almost 163574
others 163201
return 163003
leaders 162799
pri@@ 162764
x@@ 162763
ning 162535
behind 162093
trying 162079
lot 161977
ps 161934
ens 161671
ins 161437
gi@@ 161429
often 161073
once 161043
ess 161016
price 160641
didn 160548
call 160486
est@@ 160358
up@@ 160248
40 160108
What 160048
us@@ 159881
With 159590
Car@@ 159502
war@@ 159441
Th@@ 159398
increase 159122
shot 159066
try 159042
Reuters 158875
fell 158777
air 158695
ants 158545
yet 158416
cont@@ 158375
David 158348
games 158254
food 157961
nation 157757
along 157747
els 157745
Mo@@ 157433
April 157388
issue 157313
great 157145
banks 156860
executive 156758
State 156435
ke 156426
attack 156389
0 156307
open 156132
20@@ 156058
current 155955
leading 155869
sk@@ 155748
vote 155675
Afghanistan 155370
believe 155208
media 154772
18 154733
fire 154727
within 154713
interest 154577
2006 154451
series 154442
r 154115
crisis 154014
key 153936
Har@@ 153886
sure 153850
str@@ 153602
risk 153549
ner 153517
real 153356
ati@@ 153355
med 153345
me@@ 153219
fi@@ 152937
eight 152862
ster 152415
100 152291
things 152149
sion 151940
do@@ 151901
following 151721
credit 151694
t-@@ 151524
let 151242
14 151080
M 150984
ov@@ 150983
May 150901
rec@@ 150734
oc@@ 150711
Department 150683
al-@@ 150617
control 150547
Iran 150493
Bar@@ 150426
TV 150229
markets 150061
13 149878
administration 149812
different 149660
ia 149490
comp@@ 149465
man@@ 149445
energy 149148
shed 149129
cha@@ 149087
Brown 148939
large 148909
Some 148845
all@@ 148622
ph@@ 148621
ick@@ 148417
results 148154
released 148128
har@@ 148062
action 148033
why 147904
important 147872
building 147829
ched 147772
ear@@ 147769
dec@@ 147743
Li@@ 147724
clear 147655
outside 147600
ad 147518
ber@@ 147320
ited 147187
col@@ 147111
However 147068
room 147033
policy 146916
looking 146792
ice 146759
strong 146742
seven 146606
private 146562
July 146372
force 146348
comes 146337
possible 146055
always 145690
ick 145274
study 145236
'@@ 145129
ell 145077
January 145073
16 145066
include 144987
coming 144739
board 144435
largest 144290
oo@@ 144277
Co@@ 144275
Col@@ 144230
level 144150
players 144147
White 144077
light 144072
thought 144067
ators 144039
problems 143992
UPI 143946
minutes 143866
available 143721
fied 143262
tic 143202
full 143118
ass@@ 142983
ered 142841
ow@@ 142615
on-@@ 142046
re 141921
growth 141508
ru@@ 141461
att@@ 141337
ics 140853
hard 140831
mis@@ 140799
workers 140766
sent 140759
fall 140557
played 140555
ator 140345
te@@ 139779
McCain 139647
ative 139609
Minister 139454
name 139423
forces 139368
ahead 139307
ical 139264
period 138859
aw@@ 138794
foreign 138739
Bank 138251
started 137763
town 137682
sha@@ 137591
September 137372
problem 137020
course 136839
h 136751
te 136715
our@@ 136616
higher 136394
costs 136320
R 136311
Europe 136282
ages 136229
authorities 136186
general 135663
3.@@ 135623
Ad@@ 135479
getting 135455
reports 135439
biggest 135315
offer 135152
Street 135146
December 135141
rights 134953
2010 134936
done 134770
provide 134360
form 134335
id 134019
history 134005
victory 133775
film 133685
visit 133544
dr@@ 133469
sur@@ 133366
os 133212
average 133204
ze 133138
act 133068
ship 132931
wife 132849
tri@@ 132832
continue 132638
received 132582
gave 132514
mother 132244
groups 132145
f 132090
staff 132061
live 131864
spending 131675
research 131646
jobs 131627
minister 131578
low 131487
loss 131447
bill 131360
ended 131231
ler 131191
Court 131182
role 131065
ann@@ 130977
Republican 130554
California 130326
charges 130275
person 130203
17 130201
ering 130053
troops 129888
together 129762
ely 129687
Ex@@ 129681
sted 129585
November 129385
recently 129235
pu@@ 129168
ig@@ 129072
paid 128997
nuclear 128776
wh@@ 128702
1,@@ 128485
18@@ 128477
An 128295
rather 128186
data 128162
students 128042
order 127908
talks 127889
agency 127871
became 127836
Chinese 127752
Americans 127532
While 127406
ud@@ 127402
ders 127179
comm@@ 127112
Sp@@ 127055
Democratic 127011
position 126963
doing 126801
Gu@@ 126635
front 126538
race 126423
sw@@ 126204
3-@@ 126150
shi@@ 126128
ace 125597
himself 125593
fact 125417
region 125344
morning 125319
ite 125309
Michael 125262
off@@ 125239
lower 125218
round 125160
sl@@ 125082
tor 124874
L 124682
needed 124674
ast@@ 124551
conference 124409
list 124167
B 124060
running 123981
cor@@ 123893
senior 123889
rose 123397
process 123339
International 123306
Senate 123271
der@@ 123220
60 123135
ments 122981
pi@@ 122818
father 122276
sts 121887
'll 121783
latest 121752
however 121739
Pakistan 121676
book 121628
enti@@ 121601
ie 121504
Par@@ 121413
rest 121347
500 121341
4.@@ 121239
turned 121169
To 121072
bed 120933
saw 120620
evidence 120598
ill 120594
showed 120530
Congress 120492
child 120452
ming 120313
result 120308
issues 120259
Di@@ 120254
wanted 120142
X@@ 120117
ground 120111
community 120042
parents 120010
states 119831
Per@@ 119831
investment 119769
scored 119650
stop 119587
ery 119478
member 119294
October 119192
main 119027
club 119018
cu@@ 118863
story 118792
lin@@ 118717
ms 118531
shing 118490
Mon@@ 118365
total 118362
he@@ 118309
miles 118308
Democrats 118306
Russia 118230
ff@@ 118141
bit 118128
compared 117963
despite 117681
attacks 117629
doesn 117617
lea@@ 117407
ines 117249
hospital 117198
gl@@ 116961
press 116707
den 116609
areas 116459
24 116193
goal 116150
hand 116123
ned 116096
involved 116019
gas 115980
du@@ 115920
spent 115893
online 115866
uc@@ 115631
ten@@ 115595
Israel 115566
development 115549
so@@ 115188
El@@ 114861
ore 114806
ish 114694
sting 114589
dy 114573
Le@@ 114488
rates 114383
dollars 114276
appeared 114223
firm 114217
investors 114162
event 114134
arrested 114083
phone 113913
French 113899
turn 113887
technology 113785
ell@@ 113723
10@@ 113631
ess@@ 113532
music 113516
No 113263
release 113229
cases 113066
ways 113022
summer 112952
presidential 112916
sel@@ 112907
France 112883
www.@@ 112837
ently 112599
agreed 112529
ca@@ 112483
Bo@@ 112462
ash 112400
shares 112209
sions 112066
human 111966
trade 111935
products 111890
Pro@@ 111767
ake 111680
anc@@ 111431
mer@@ 111349
two-@@ 111313
gen@@ 111264
sive 111244
super@@ 111091
failed 110906
buy 110800
fourth 110633
2005 110626
manager 110601
needs 110512
although 110403
August 110213
.com 110186
India 110024
pol@@ 109769
East 109751
coun@@ 109740
legal 109696
19 109658
Be@@ 109577
February 109547
black 109447
go@@ 109389
performance 109322
back@@ 109308
cash 109207
homes 109102
aid 108836
hold 108753
az@@ 108689
accused 108679
either 108663
are@@ 108628
acc@@ 108582
television 108567
makes 108455
ches 108335
trial 108330
worth 108246
feel 108180
hope 108068
stage 108057
tly 108003
ns 107827
Com@@ 107815
Times 107762
pressure 107710
ory 107663
ne 107617
hom@@ 107548
Gr@@ 107520
forced 107468
career 107446
road 107316
production 107283
helped 107271
thousands 107214
allow 107148
All 107084
demand 107034
sm@@ 107018
sign 107009
agreement 106936
inc@@ 106932
bul@@ 106881
previous 106841
efforts 106756
tu@@ 106733
ei@@ 106708
cr@@ 106685
County 106655
bad 106565
wi@@ 106543
meet 106479
rise 106471
ash@@ 106448
means 106447
Pre@@ 106387
star 106361
bre@@ 106331
Su@@ 106209
22 106179
tors 106164
ect 106059
acy 106023
ke@@ 106023
allowed 106017
ones 105906
investigation 105830
drug 105774
ran@@ 105771
Barack 105747
kind 105674
experience 105672
forward 105574
medical 105552
growing 105217
space 105164
aged 104942
potential 104935
stock 104829
charged 104825
ously 104728
21 104616
Los 104581
Hol@@ 104504
schools 104490
match 104417
ving 104413
er-@@ 104333
News 104303
ade 104208
themselves 104206
ably 104173
gh@@ 104170
yesterday 103999
changes 103958
nothing 103883
Now 103710
soon 103372
chance 103317
bring 103203
officers 103199
198@@ 102998
serious 102914
social 102848
bur@@ 102813
ori@@ 102780
'd 102714
short 102649
playing 102627
question 102610
brought 102609
ain 102602
insurance 102599
worked 102436
sen@@ 102426
Japan 102340
debt 102225
remain 102175
similar 102093
George 102080
nine 102079
charge 102070
Nor@@ 101994
leave 101929
San 101894
weekend 101794
patients 101745
air@@ 101718
ching 101658
cre@@ 101595
met 101528
cur@@ 101292
boo@@ 101166
claims 100931
Council 100908
published 100903
League 100837
General 100609
Ber@@ 100600
a-@@ 100491
ised 100413
BBC 100403
ach@@ 100368
value 100298
customers 100148
single 100071
Angeles 100029
ets 99917
friends 99913
income 99833
disc@@ 99780
ism 99769
test 99745
15@@ 99627
probably 99611
shows 99589
remains 99490
term 99471
bn 99420
difficult 99353
ah@@ 99339
winning 99311
opposition 99241
wants 99203
couple 99142
included 99016
ners 98974
mi@@ 98760
w 98752
sold 98725
Man@@ 98519
management 98460
video 98435
ber 98400
violence 98327
th-@@ 98322
ver 98304
sex 98242
ge@@ 98213
kers 98212
increased 98168
sec@@ 97967
Center 97917
one-@@ 97763
AN@@ 97699
special 97683
ats 97596
0-@@ 97565
den@@ 97503
voters 97448
Ma@@ 97434
lives 97407
Cup 97401
project 97324
prison 97316
idea 97267
seems 97262
ately 97131
ists 97058
tried 96981
eli@@ 96947
fr@@ 96776
white 96746
ved 96714
chi@@ 96674
art 96579
Pr@@ 96394
sol@@ 96344
central 96310
range 96309
fre@@ 96266
net 96259
pr@@ 96256
living 96186
bs 96103
annual 96080
sti@@ 96046
Fi@@ 95980
ends 95742
ther 95696
jo@@ 95691
James 95690
Last 95601
named 95470
giving 95398
chairman 95286
heard 95242
ball 95184
funds 95168
pat@@ 95095
operations 95020
fight 94922
tim@@ 94905
popular 94854
three-@@ 94836
ences 94832
hand@@ 94773
tw@@ 94660
ham 94585
player 94582
mat@@ 94495
Two 94408
dead 94391
31 94365
we@@ 94362
Un@@ 94282
prime 94218
personal 94144
fac@@ 94016
ist@@ 93988
uses 93976
non-@@ 93873
ther@@ 93862
stri@@ 93765
an-@@ 93712
23 93694
anything 93635
trans@@ 93613
CNN 93548
especially 93480
Africa 93475
Cl@@ 93377
ters 93336
F 93333
zing 93309
ls 93292
fer@@ 93171
claimed 93152
ale 93114
conditions 93021
cause 92970
ban@@ 92866
hour 92860
2004 92806
access 92794
effort 92765
6-@@ 92702
1-@@ 92673
budget 92617
longer 92538
fin@@ 92255
heart 92228
ari@@ 92222
beat 92174
related 92168
moved 92137
ple 92131
Group 92090
Government 92088
6.@@ 92040
figures 91967
Web 91960
officer 91900
Qu@@ 91856
ically 91794
ture 91742
table 91735
training 91623
levels 91582
Sha@@ 91562
ays 91539
tics 91424
tic@@ 91336
ney 91276
ind@@ 91246
families 91233
Cor@@ 91136
Paul 91090
mid@@ 90973
safety 90843
tro@@ 90802
certain 90774
5.@@ 90757
ina 90743
G 90668
education 90536
27 90442
works 90296
decided 90288
love 90268
raised 90264
lines 90245
re-@@ 90178
someone 90157
ements 90118
ford 89921
v 89877
view 89811
ality 89708
des@@ 89696
co-@@ 89604
ire 89603
ana 89600
Bri@@ 89597
Korea 89588
These 89577
Company 89477
gra@@ 89444
Bur@@ 89392
Ben@@ 89377
opening 89372
tor@@ 89348
matter 89339
stay 89293
25@@ 89286
od@@ 89280
signed 89189
tical 89130
Germany 88991
pen@@ 88924
ys 88869
ee 88835
calls 88794
ail@@ 88787
huge 88772
bar@@ 88649
pass 88642
trading 88638
uni@@ 88604
newspaper 88587
recession 88567
high-@@ 88525
ping 88469
mp@@ 88431
contract 88402
Mor@@ 88332
sh 88199
ani@@ 88181
build 88181
described 88131
bal@@ 88126
treatment 88083
hy@@ 88048
break 87890
anyone 87879
pped 87854
ey@@ 87771
28 87771
197@@ 87747
AR@@ 87652
significant 87574
reach 87530
example 87514
judge 87427
Secretary 87424
rel@@ 87297
cancer 87252
Even 87237
anti-@@ 87188
star@@ 87181
fund 87046
questions 87027
mil@@ 87026
property 86951
ew@@ 86904
For@@ 86904
rules 86886
Bl@@ 86886
Q@@ 86728
ain@@ 86690
Russian 86612
talk 86610
aff@@ 86604
17@@ 86552
concerns 86510
served 86503
af@@ 86486
actually 86386
amount 86384
soldiers 86342
impact 86190
gre@@ 86169
sell 86149
terms 86119
4-@@ 86118
Br@@ 86037
ending 85969
comment 85837
Many 85757
26 85720
En@@ 85599
sense 85595
pain@@ 85584
class 85584
Mer@@ 85536
daughter 85404
No@@ 85368
Jo@@ 85367
Texas 85333
cannot 85327
Am@@ 85187
2-@@ 85046
opened 84961
run@@ 84939
particularly 84818
believed 84801
inside 84746
Me@@ 84594
More 84345
followed 84325
ath 84254
7.@@ 84250
continued 84237
ach 84204
ile 84154
ger 84147
situation 84104
5-@@ 84053
ci@@ 84049
Prime 84025
7-@@ 84018
Inc 84005
coach 83965
Sch@@ 83922
Union 83908
closed 83889
parts 83832
fans 83827
runs 83752
step 83744
network 83670
sector 83663
common 83656
Taliban 83564
sal@@ 83486
pres@@ 83467
currently 83448
ght 83374
200 83318
sn@@ 83311
Po@@ 83195
climate 83144
create 83137
che@@ 83119
bas@@ 83051
events 83027
por@@ 82995
version 82958
By 82908
above 82834
offered 82724
Wal@@ 82510
border 82480
Ser@@ 82455
ese 82443
dollar 82391
Vi@@ 82390
ear 82345
poor 82309
ined 82199
aging 82181
Florida 82168
quickly 82073
Republicans 82069
Wor@@ 82019
interview 81960
ring 81904
pe 81862
fe@@ 81819
born 81800
itself 81733
instead 81618
claim 81612
ath@@ 81588
base 81551
ce 81530
Ri@@ 81528
ah 81462
Jones 81454
iting 81446
cars 81444
majority 81429
exc@@ 81400
,@@ 81390
mark 81382
Robert 81378
leg@@ 81323
center 81253
ret@@ 81173
Gar@@ 81146
caused 81100
warned 80992
station 80894
mission 80878
housing 80801
mer 80795
committee 80747
shire 80676
built 80674
explo@@ 80535
travel 80528
candidate 80518
def@@ 80512
planned 80450
My 80390
ped 80390
ai 80388
amp@@ 80372
fore@@ 80342
title 80340
down@@ 80257
row 80254
Smith 80188
fighting 80169
husband 80166
search 80166
ong@@ 80122
success 80102
wor@@ 80071
app@@ 80070
bil@@ 80069
reason 80027
killing 79994
inv@@ 79945
Health 79926
returned 79902
employees 79874
Labour 79797
oun@@ 79727
ma 79718
fully 79701
form@@ 79686
includes 79648
the@@ 79544
businesses 79488
ances 79459
29 79459
No. 79450
Pl@@ 79425
,000 79320
wrote 79310
don@@ 79304
reached 79303
drive 79294
date 79292
os@@ 79263
indic@@ 79243
Internet 79170
13@@ 79037
numbers 79036
Party 78912
sites 78896
Se@@ 78869
cuts 78839
elections 78773
confirmed 78672
ane 78665
zed 78621
details 78574
cap@@ 78424
Australia 78395
s-@@ 78273
residents 78204
straight 78195
fuel 78168
Scotland 78125
response 78102
ars 78074
bro@@ 77997
Association 77994
ist 77972
ici@@ 77919
raise 77868
dropped 77716
9.@@ 77639
hu@@ 77588
gone 77505
Ac@@ 77449
profit 77435
s. 77379
debate 77367
ingly 77327
fu@@ 77291
Park 77281
drugs 77253
whole 77169
immediately 77112
her@@ 77080
ide 77049
focus 77005
Iraqi 76999
2003 76985
gri@@ 76982
Her@@ 76979
read 76892
ue 76887
qui@@ 76868
fo@@ 76848
serve 76813
peace 76801
WASHINGTON 76764
ected 76713
tell 76694
sale 76628
looked 76621
Ne@@ 76594
70 76536
cher 76529
80 76446
ang 76428
Johnson 76420
effect 76416
wide 76408
45 76398
teams 76322
considered 76321
cents 76255
ta 76247
minute 76119
ff 76117
bid 76070
gar@@ 76062
changed 76049
Press 76037
emb@@ 76034
ra 76008
ft 75991
incident 75937
ham@@ 75853
ual 75656
expect 75645
passed 75604
ban 75519
People 75394
happened 75392
tre@@ 75326
16@@ 75243
quality 75241
appear 75121
ged 74947
ound 74935
Chicago 74916
Although 74879
nor@@ 74800
Str@@ 74792
Y 74735
council 74671
8.@@ 74624
drop 74616
apped 74605
fy 74594
takes 74573
Pol@@ 74502
hundreds 74499
ational 74496
eds 74449
additional 74438
scheduled 74418
isn 74363
char@@ 74361
Mexico 74359
ric@@ 74301
murder 74209
eng@@ 74145
loans 74143
boy 74140
Commission 74036
assets 74003
simply 73993
selling 73988
ams 73935
sou@@ 73912
35 73871
ky 73830
moment 73808
dep@@ 73726
EU 73703
source 73675
seeking 73671
everyone 73651
trip 73644
val@@ 73614
coll@@ 73578
door 73562
0,000 73484
Tr@@ 73469
injured 73457
rem@@ 73456
reduce 73451
expl@@ 73408
inten@@ 73350
created 73340
ack 73339
gets 73321
wasn 73276
leaving 73151
defense 73127
launched 73126
00@@ 73116
lose 73061
parties 73037
Mil@@ 72995
bat@@ 72962
post 72956
demonstr@@ 72954
mag@@ 72934
everything 72904
speech 72812
rising 72781
Dr. 72668
low@@ 72652
quite 72598
ste@@ 72563
p.m. 72553
tered 72526
cover 72502
How 72444
14@@ 72444
mortgage 72433
gan 72417
ran 72358
in-@@ 72348
mean 72284
Committee 72282
experts 72246
ant@@ 72243
ak 72153
analysts 72148
band 72090
ths 71938
measures 71932
filed 71926
hearing 71874
attention 71836
feet 71822
review 71821
estimated 71803
Israeli 71796
track 71795
German 71780
Federal 71765
fast 71737
consumers 71710
US@@ 71665
felt 71574
hopes 71558
ask 71452
ories 71434
issued 71325
wrong 71269
losses 71198
save 71197
ail 71179
ta@@ 71175
starting 71136
high@@ 71003
met@@ 71002
mu@@ 70956
emergency 70810
ir 70803
ame 70798
Em@@ 70793
Wall 70730
ready 70717
worst 70683
N 70640
toward 70616
eb@@ 70567
figure 70538
population 70519
article 70517
revenue 70514
int@@ 70513
bel@@ 70506
movie 70484
loc@@ 70473
cat@@ 70425
suffered 70355
sides 70347
tur@@ 70319
200@@ 70300
Beijing 70257
attempt 70220
ise 70204
ened 70180
Research 70165
programs 70152
hel@@ 70092
Sal@@ 70044
designed 70039
conc@@ 69991
kept 69980
vo@@ 69944
operating 69838
ology 69835
condition 69796
owned 69781
seem 69771
threat 69763
aries 69715
ka 69640
Office 69622
gener@@ 69571
consumer 69563
ur 69529
reporters 69528
inf@@ 69491
Most 69463
ili@@ 69424
ental 69421
oy@@ 69397
football 69349
exam@@ 69339
Ms. 69319
autom@@ 69314
decades 69311
legislation 69223
ong 69197
independent 69178
address 69162
store 69099
2,@@ 69045
benefits 69038
Jackson 69033
serv@@ 69026
According 69019
competition 69014
W 69010
actions 68998
operation 68890
Ab@@ 68866
ma@@ 68804
sli@@ 68759
league 68744
crime 68690
ude 68659
friend 68654
disease 68653
Pe@@ 68652
victims 68633
approach 68603
sid@@ 68593
hon@@ 68578
ef@@ 68567
century 68402
message 68383
stand 68360
begin 68296
� 68276
product 68253
girl 68194
sing@@ 68129
can@@ 68122
words 68099
ented 68097
driving 68039
missing 67787
plant 67676
bus 67669
army 67662
Mark 67659
School 67576
ve@@ 67542
As@@ 67532
mind 67526
shop 67519
que 67498
hor@@ 67444
tional 67400
self-@@ 67400
inst@@ 67366
challenge 67332
declined 67315
Pri@@ 67312
0s 67305
provided 67296
injury 67263
lies 67262
ich 67249
scene 67232
dri@@ 67226
funding 67210
He@@ 67191
seemed 67101
north 67043
era 67037
ples 67009
ward 66983
strike 66951
NEW 66892
New@@ 66852
account 66851
om 66819
Google 66808
ects 66762
addition 66744
ills 66712
oned 66709
ER@@ 66687
supporters 66683
law@@ 66661
else 66658
lat@@ 66585
perhaps 66550
ous@@ 66479
-based 66473
Since 66410
opportunity 66396
yards 66374
guilty 66327
hands 66278
size 66131
goes 66098
ening 66090
spend 66056
Security 65985
Inter@@ 65983
construction 65978
ever@@ 65976
sor@@ 65966
Pi@@ 65922
union 65792
letter 65785
ʼs 65619
complete 65615
post@@ 65586
candidates 65575
statements 65570
south 65550
hotel 65542
lim@@ 65524
moving 65505
ours 65494
easy 65491
finished 65468
cour@@ 65391
trac@@ 65370
lob@@ 65365
strategy 65365
lack 65354
ster@@ 65332
ly@@ 65328
ore@@ 65311
avoid 65285
millions 65257
port 65189
2001 65168
losing 65159
fa@@ 65076
successful 65040
weapons 65012
Or@@ 64983
required 64944
commercial 64915
1,000 64915
proposed 64895
receive 64891
gg@@ 64842
reform 64796
Wil@@ 64719
Sir 64696
cri@@ 64678
holding 64653
maker 64616
il 64615
vehicles 64595
Ms 64575
index 64553
ears 64522
bing 64511
alone 64472
Treasury 64451
beyond 64415
consider 64359
viol@@ 64354
Bill 64338
suggested 64302
whom 64281
Williams 64277
street 64232
peri@@ 64181
domestic 64161
English 64144
trav@@ 64077
Lu@@ 64067
Afghan 64025
flight 64006
K 63932
researchers 63894
website 63855
speci@@ 63835
launch 63831
blood 63831
pp@@ 63785
zz@@ 63733
below 63726
shes 63700
carried 63699
improve 63693
land@@ 63688
Then 63617
kets 63597
true 63593
Of 63576
written 63536
ven@@ 63521
damage 63511
natural 63448
gh 63375
st-@@ 63349
afternoon 63346
overall 63315
joined 63292
student 63291
sion@@ 63249
Royal 63242
decade 63229
African 63176
first-@@ 63175
card 63164
weight 63142
imp@@ 63078
arm 63065
dem@@ 63041
head@@ 62968
Bi@@ 62963
Bu@@ 62953
Martin 62945
west 62901
90 62863
style 62824
comments 62805
recovery 62795
dro@@ 62784
alized 62767
deb@@ 62764
ek 62743
primary 62730
work@@ 62723
sport 62713
Richard 62696
planning 62667
cy@@ 62642
ten 62637
8-@@ 62629
previously 62611
protect 62574
vehicle 62540
relationship 62532
finance 62509
paper 62495
hear@@ 62491
fine 62480
Her 62467
backed 62411
target 62390
bor@@ 62367
all-@@ 62332
Not 62315
battle 62295
Army 62290
owner 62241
foot 62230
ack@@ 62193
rich 62175
hun@@ 62149
196@@ 62132
far@@ 62126
books 62065
looks 62056
survey 62047
highest 62039
Wales 62005
ian 62002
Sen. 61996
Justice 61968
plane 61932
ruling 61919
present 61892
Western 61883
knew 61858
safe 61852
double 61841
admitted 61837
arrived 61802
happy 61728
winner 61695
da 61658
choice 61657
IC@@ 61620
rule 61572
Peter 61545
extra 61528
break@@ 61472
centre 61445
Both 61426
lab@@ 61418
practice 61402
sign@@ 61397
responsible 61396
Cam@@ 61357
systems 61270
bri@@ 61250
medi@@ 61214
concern 61187
mobile 61148
[ 61125
amid 61092
Pat@@ 61044
offering 61014
aches 60995
denied 60965
prevent 60933
] 60914
greater 60890
tour 60850
Is 60841
YORK 60832
adi@@ 60800
10-@@ 60798
southern 60735
host 60710
lif@@ 60677
loan 60667
tion@@ 60662
ensure 60630
green 60607
ny 60586
east 60572
ere 60571
del@@ 60534
elled 60522
hol@@ 60469
projects 60468
laws 60435
necessary 60431
ez 60426
ington 60407
watch 60371
top@@ 60353
placed 60266
vis@@ 60205
Is@@ 60199
Bay 60190
faces 60156
Ireland 60155
alleged 60131
X 60121
exp@@ 60099
usually 60094
department 60076
offers 60062
cast 60056
college 59999
bought 59883
places 59878
tal@@ 59824
option 59763
politics 59729
fil@@ 59712
enc@@ 59703
ordered 59686
Del@@ 59686
appeal 59682
secretary 59664
injuries 59649
Ric@@ 59634
Cu@@ 59617
positive 59530
believes 59527
die 59501
spokeswoman 59428
broke 59427
computer 59398
conf@@ 59279
2002 59127
measure 59118
anti@@ 59096
counter@@ 59090
ano 59067
mental 59063
Gordon 59059
limited 59004
identified 58974
militants 58950
Wat@@ 58909
throughout 58908
sun@@ 58875
Do@@ 58869
remained 58865
-up 58854
earnings 58841
Ke@@ 58832
approved 58807
War 58784
Hun@@ 58762
civil 58715
fear 58639
via 58591
posted 58365
300 58352
fair 58351
Virginia 58345
pit@@ 58324
corporate 58283
word 58278
users 58271
appears 58263
ination 58228
struck 58213
ute 58206
twice 58198
Si@@ 58156
duc@@ 58150
model 58119
ency 58106
Olympic 58078
intelligence 58045
nations 58030
agree 58026
tt@@ 58026
na 57998
2000 57992
signs 57989
decline 57982
beginning 57961
gold 57941
dre@@ 57925
adding 57912
ass 57912
Bas@@ 57891
We@@ 57883
5,000 57876
Day 57857
aren 57825
confidence 57792
ater 57787
understand 57771
finally 57765
row@@ 57738
lawyer 57697
arr@@ 57635
Associated 57631
cul@@ 57621
subject 57575
goals 57509
shooting 57488
Indian 57485
doctors 57476
weather 57426
compl@@ 57424
attorney 57401
ot 57375
send 57320
reli@@ 57296
int 57244
co 57235
U.N. 57190
King 57187
original 57150
OR@@ 57137
rival 56967
bling 56936
75 56932
rain 56894
H 56841
Fre@@ 56818
tough 56809
Mike 56803
concerned 56780
eled 56772
active 56719
activity 56713
governor 56701
facing 56696
eth@@ 56637
Manchester 56637
champion 56624
edge 56624
bol@@ 56608
Service 56568
eless 56521
Japanese 56519
kids 56516
illegal 56505
Christmas 56472
views 56468
firms 56461
calling 56421
unit 56408
heavy 56390
sist@@ 56385
wood 56382
pping 56350
Another 56335
hum@@ 56335
cred@@ 56190
traditional 56187
ino 56172
deep 56132
flu 56063
driver 56062
spoke 56046
page 56043
sports 56016
sometimes 55958
avi@@ 55930
benefit 55926
evening 55914
fication 55913
tran@@ 55901
fired 55870
powerful 55855
sil@@ 55738
Canada 55719
Res@@ 55711
talking 55660
sea 55620
roc@@ 55576
faced 55571
armed 55542
ink 55503
Ger@@ 55473
critical 55471
Bel@@ 55464
Red 55448
scheme 55426
cra@@ 55392
acks 55386
ap 55383
arms 55379
developed 55379
Hillary 55367
cen@@ 55355
policies 55341
caught 55339
During 55338
ological 55308
sin@@ 55305
read@@ 55305
District 55287
Thomas 55249
ser@@ 55234
refused 55231
Despite 55169
stopped 55163
inj@@ 55140
hur@@ 55140
cities 55128
ging 55106
Cha@@ 55080
banking 55061
Mu@@ 55029
Comm@@ 55025
ound@@ 55009
sum@@ 55001
criminal 54979
ection 54959
Other 54922
Wi@@ 54906
box 54887
suicide 54874
.com. 54849
First 54830
Min@@ 54828
berg 54821
ton@@ 54813
estate 54803
produced 54718
leadership 54700
Lo@@ 54666
entire 54647
eld 54628
Boston 54620
certainly 54612
cal@@ 54595
poll 54587
reading 54584
lan@@ 54569
ju@@ 54541
Fin@@ 54516
stor@@ 54449
ature 54425
progress 54396
essed 54384
ial 54377
Those 54362
men@@ 54346
Italy 54316
helping 54272
Bro@@ 54265
exchange 54226
gs 54127
standing 54092
ads 54078
daily 54061
partner 54037
towards 54032
ep 53998
ook 53995
yard 53960
paying 53953
sources 53921
ski 53917
owners 53912
fic@@ 53906
Georgia 53899
atic 53882
speed 53832
some@@ 53817
fiscal 53809
piece 53779
gun@@ 53772
mem@@ 53763
pre-@@ 53763
deaths 53760
effective 53758
mus@@ 53751
Pal@@ 53741
church 53729
dies 53714
Cri@@ 53689
rac@@ 53665
middle 53635
join 53635
ancy 53590
Mag@@ 53584
largely 53581
Meanwhile 53563
package 53536
floor 53512
contributed 53484
advantage 53461
assu@@ 53451
revealed 53412
thy 53391
Asia 53336
seconds 53314
records 53313
contact 53307
Our 53300
fifth 53272
Palestinian 53225
environment 53190
crowd 53188
developing 53186
N.@@ 53179
western 53179
supply 53179
sky 53101
taxes 53097
seat 53077
makers 53041
12@@ 53023
32 52976
Sam@@ 52950
pur@@ 52946
ut 52888
cent@@ 52843
ation@@ 52839
din@@ 52833
second-@@ 52821
district 52812
showing 52787
proposal 52753
cru@@ 52742
individual 52694
rit@@ 52670
gain 52647
Yet 52645
programme 52632
increasingly 52619
canc@@ 52569
software 52558
spot 52502
plus 52497
St. 52475
votes 52466
batt@@ 52442
Lee 52398
dev@@ 52306
train 52290
Ru@@ 52260
discuss 52258
serving 52255
ment@@ 52232
missed 52231
equipment 52141
generation 52134
Mad@@ 52132
arrest 52091
J. 52070
keeping 52056
tournament 52040
ol 52034
ner@@ 52030
organization 52013
Mal@@ 51987
plays 51974
eding 51967
orial 51962
AT@@ 51934
fying 51932
airport 51920
produce 51913
ank 51910
sis 51857
main@@ 51805
shown 51764
Spain 51763
bun@@ 51760
Air 51731
island 51728
ref@@ 51719
well-@@ 51717
kes 51713
bar 51696
crash 51692
ites 51685
pun@@ 51667
discovered 51662
traffic 51636
eventually 51631
jud@@ 51619
ligh@@ 51597
answer 51577
failure 51549
ces 51548
Chief 51532
Chris 51523
_ 51491
carry 51484
ef 51467
mostly 51463
GM 51449
U 51447
becoming 51436
ine@@ 51428
regular 51364
northern 51336
radio 51320
ily 51286
movement 51253
Northern 51236
ini@@ 51190
ecting 51189
emissions 51187
tests 51180
ville 51168
scientists 51138
basis 51134
province 51093
pretty 51089
Joe 51075
inger 51052
ruled 51047
meant 51036
aware 51027
sit 50997
scre@@ 50979
stores 50977
+ 50914
payments 50897
falling 50876
affected 50861
Just 50857
giant 50829
balance 50757
happen 50749
standards 50743
non@@ 50715
tru@@ 50703
scale 50692
let@@ 50602
pas@@ 50599
mor@@ 50569
four-@@ 50567
of@@ 50555
risks 50520
streets 50516
Gre@@ 50498
public@@ 50484
Tri@@ 50476
Institute 50459
massive 50449
committed 50436
gam@@ 50413
hear 50411
nam@@ 50408
pil@@ 50393
Mid@@ 50390
ate@@ 50371
Islamic 50365
195@@ 50353
Cap@@ 50329
speak 50322
inflation 50314
refl@@ 50297
long-@@ 50290
Wh@@ 50290
Carolina 50274
Gl@@ 50235
From 50224
particular 50143
direct 50141
remaining 50127
convicted 50108
agencies 50105
a.m. 50079
walk 50078
rer 50044
relations 50039
mid-@@ 50024
Paris 50017
directly 50013
sen 50005
Open 49979
Australian 49966
unemployment 49954
ections 49915
bomb 49910
ew 49905
managed 49868
pair 49868
elected 49866
brother 49861
follow 49857
Bal@@ 49852
Microsoft 49839
alist 49819
prepared 49735
zone 49689
science 49676
ket 49671
Italian 49650
rescue 49634
completed 49627
ll 49616
Sy@@ 49596
equity 49579
boost 49576
Bor@@ 49574
Hollywood 49548
putting 49541
ails 49523
Du@@ 49512
Sol@@ 49461
wall 49455
coverage 49368
appearance 49360
setting 49360
II 49359
trust 49345
disp@@ 49330
ures 49321
audience 49320
antly 49299
buying 49267
vice 49264
Pen@@ 49242
akes 49241
design 49236
various 49236
sla@@ 49193
sy@@ 49162
holiday 49144
s--@@ 49128
negotiations 49121
names 49112
foo@@ 49107
Ju@@ 49104
profits 49090
ution 49081
seeing 49035
providing 49021
eption 49021
protection 49020
existing 49015
High 49011
gun 49006
separate 48965
lawmakers 48957
pose 48936
five-@@ 48928
highly 48876
cer@@ 48868
increasing 48859
allowing 48836
Rec@@ 48834
urged 48823
ama 48821
lived 48821
o-@@ 48788
sem@@ 48774
Mi@@ 48770
guard 48769
tures 48744
33 48702
trad@@ 48694
enn@@ 48681
00 48671
Why 48655
Cal@@ 48651
Their 48650
blo@@ 48632
About 48573
Tom 48547
ries 48539
push 48528
provides 48482
Central 48476
spread 48434
Lord 48424
short@@ 48420
older 48414
lin 48401
resources 48392
treated 48388
activities 48378
nearby 48333
sam@@ 48293
Morgan 48290
squ@@ 48287
culture 48266
Today 48266
Under 48251
Gi@@ 48248
rent 48238
warning 48223
vers 48191
cau@@ 48152
ships 48152
announcement 48146
grand@@ 48094
ide@@ 48056
Mis@@ 48044
hard@@ 48031
ck@@ 48015
Green 47996
add 47979
Tran@@ 47975
pulled 47968
moun@@ 47953
Shar@@ 47950
itable 47937
smaller 47889
eman 47842
Dis@@ 47835
Ge@@ 47818
any@@ 47804
couldn 47803
fresh 47791
joint 47788
Ang@@ 47786
9-@@ 47774
AL@@ 47771
wait 47770
cle 47770
loo@@ 47754
worse 47746
stand@@ 47728
Its 47681
Road 47663
Qaeda 47655
linked 47640
domin@@ 47633
outs 47625
by@@ 47616
prof@@ 47595
documents 47592
flow@@ 47569
seek 47564
long-term 47556
surgery 47527
emp@@ 47521
Financial 47511
AC@@ 47506
waiting 47484
houses 47466
carrying 47456
noted 47452
aircraft 47441
conservative 47428
industrial 47403
equ@@ 47394
Ham@@ 47388
Baghdad 47352
bles 47321
language 47307
steps 47282
lawyers 47279
ank@@ 47260
la 47257
summit 47242
governments 47228
abuse 47222
park 47203
carbon 47177
Scottish 47171
low-@@ 47169
religious 47158
score 47139
responsibility 47138
famous 47122
bra@@ 47120
Muslim 47117
occa@@ 47075
eastern 47059
spring 47049
Sa@@ 47007
educ@@ 46965
continues 46961
suit 46949
Coun@@ 46945
ands 46939
baby 46920
note 46917
Nations 46896
society 46887
Big 46885
politicians 46880
Foreign 46870
regional 46864
session 46845
pick 46839
cli@@ 46810
tou@@ 46784
hal@@ 46782
panel 46767
illing 46763
atives 46736
terrorism 46720
voted 46718
expensive 46694
acked 46688
fellow 46687
crew 46682
30@@ 46661
Corp. 46630
pay@@ 46630
Gen@@ 46619
marriage 46591
willing 46582
hea@@ 46579
ids 46552
sought 46533
mile 46523
ising 46513
covered 46491
ees 46485
lands 46471
develop 46433
dangerous 46428
executives 46375
Ed@@ 46373
dic@@ 46368
Supreme 46347
Don@@ 46324
dly 46293
aining 46233
promised 46199
status 46192
ON@@ 46181
Agency 46161
Ohio 46160
thinking 46153
Cre@@ 46139
shots 46125
storm 46120
bodies 46095
defeat 46078
ministers 46077
brand 46042
fears 46040
earned 46038
wal@@ 46028
Energy 46022
regul@@ 46016
Three 45996
print 45987
professional 45974
ston 45945
married 45927
cros@@ 45921
le-@@ 45905
400 45891
boys 45873
proc@@ 45848
deficit 45828
clearly 45816
modern 45813
girls 45792
jury 45774
to-@@ 45681
aimed 45649
ential 45630
Iranian 45621
suspected 45590
van 45570
new@@ 45557
ole 45531
type 45524
passengers 45510
Fed 45486
ck 45477
complex 45456
reasons 45448
IN@@ 45437
arti@@ 45435
AM@@ 45401
draw 45393
sa 45363
fit 45307
bridge 45307
V 45278
Ram@@ 45260
doubt 45242
Palin 45240
Steve 45227
respon@@ 45223
des 45220
check 45218
36 45199
actor 45193
Hu@@ 45183
sort 45171
iding 45113
ani 45112
Kar@@ 45098
sters 45093
accounts 45079
writing 45073
Dr 45071
cutting 45066
Ra@@ 45063
apping 45032
normal 44975
difference 44975
open@@ 44965
asking 44944
publi@@ 44929
stone 44924
Kennedy 44918
focused 44918
items 44909
screen 44894
effects 44846
wearing 44845
mur@@ 44833
GMT 44813
fur@@ 44800
pounds 44791
parliament 44787
34 44781
Ti@@ 44757
Tur@@ 44742
play@@ 44721
itation 44707
slow@@ 44700
pul@@ 44694
rejected 44681
stars 44678
mel@@ 44672
authority 44669
D-@@ 44663
rai@@ 44637
clo@@ 44634
MPs 44590
sound 44577
wouldn 44560
picture 44529
stat@@ 44486
reality 44480
ough@@ 44467
reduced 44444
ty@@ 44435
ss 44431
Ford 44427
Hospital 44424
acting 44385
iled 44371
wa@@ 44352
nur@@ 44350
hits 44317
65 44309
Act 44243
Hill 44242
elling 44240
university 44239
pan@@ 44230
To@@ 44226
learn 44213
Mac@@ 44196
za 44165
unlikely 44158
raising 44148
list@@ 44140
ges 44106
lah 44072
k-@@ 44063
zes 44041
integr@@ 44025
Cameron 44010
section 44002
cell 43993
apparently 43991
lie 43982
threatened 43965
knows 43964
desig@@ 43947
ades 43935
gate 43897
Instead 43893
finding 43893
cro@@ 43884
content 43883
worldwide 43872
Im@@ 43864
expressed 43853
nor 43837
broken 43828
win@@ 43797
decisions 43795
Services 43794
headed 43758
sexual 43755
decide 43728
struggling 43716
advertising 43710
forecast 43704
lit@@ 43661
with@@ 43657
conflict 43652
Dun@@ 43642
48 43639
premi@@ 43630
secure 43618
Black@@ 43614
female 43600
camp 43556
Sur@@ 43554
upon 43551
ange 43541
Democrat 43513
require 43479
dog 43457
grad@@ 43454
acqu@@ 43451
justice 43450
priv@@ 43437
presence 43435
expectations 43434
uck 43430
protests 43424
stake 43413
cir@@ 43348
wind 43306
deals 43302
sentence 43292
anger 43281
lying 43274
fraud 43273
Chelsea 43270
Al 43261
victim 43235
request 43212
College 43174
Ni@@ 43167
spec@@ 43150
Still 43149
oper@@ 43132
atory 43131
plants 43102
trouble 43099
person@@ 43091
alism 43080
wan@@ 43032
bury 43030
gers 43030
anced 43029
ond 43017
simple 43015
scr@@ 43008
criticism 43005
long@@ 43000
Liverpool 42975
Andrew 42971
DE@@ 42960
polls 42959
Apple 42950
show@@ 42930
predic@@ 42906
* 42898
ounded 42882
degree 42878
ared 42872
tery 42848
ular 42845
stimulus 42841
lets 42835
onic 42821
allegations 42804
Char@@ 42802
rev@@ 42798
standard 42792
Jan@@ 42786
speaking 42784
Asian 42781
ards 42778
UN 42773
ailing 42752
environmental 42721
material 42719
Pakistani 42718
sures 42716
suggest 42709
slightly 42691
Detroit 42672
Ter@@ 42643
gives 42624
seats 42619
poin@@ 42616
penalty 42604
suspect 42595
grew 42545
Middle 42528
Prince 42502
Korean 42486
prov@@ 42475
accept 42469
bers 42456
care@@ 42448
coalition 42440
Sil@@ 42430
ums 42403
Hel@@ 42399
Jer@@ 42392
IS@@ 42377
cles 42370
promo@@ 42327
widely 42296
whe@@ 42288
Der@@ 42283
conver@@ 42249
fees 42230
jail 42219
terrorist 42214
ony 42211
rep@@ 42195
institutions 42194
lied 42192
ils 42191
pic@@ 42183
alls 42169
ith 42159
ease 42143
44 42124
marketing 42112
expenses 42085
Te@@ 42077
approval 42071
image 42064
So@@ 42058
neighb@@ 42042
itors 42039
38 42037
analyst 42035
fle@@ 42031
org@@ 42009
Also 42008
exactly 42006
sle@@ 41981
ued 41972
dish 41962
thwest 41959
influence 41956
orders 41952
Win@@ 41938
CO@@ 41916
tle 41903
buildings 41899
retail 41867
37 41853
Premier 41839
hurt 41835
quali@@ 41829
voice 41804
William 41796
vision 41769
patient 41740
son@@ 41722
ean 41718
heads 41710
produc@@ 41710
tives 41702
ancing 41665
Exchange 41658
ica 41653
declared 41642
larger 41576
slow 41544
Gaza 41533
yn@@ 41530
full-@@ 41514
stocks 41503
throw 41490
dozen 41466
grow 41463
Jersey 41446
auc@@ 41445
une 41393
Scott 41389
considering 41371
2,000 41356
watching 41337
Mrs 41336
eye 41310
protest 41301
Au@@ 41267
rally 41257
advice 41253
Hall 41240
42 41238
accident 41229
sey 41223
finish 41204
village 41198
introduced 41197
dam@@ 41175
county 41166
enter 41157
wounded 41149
iring 41137
onto 41137
mate 41131
magazine 41125
55 41122
options 41121
umb@@ 41109
acted 41097
ops 41095
not@@ 41088
purchase 41084
features 41080
ub@@ 41059
nov@@ 41053
CBS 41023
ight 41022
division 41002
fri@@ 40993
block 40982
jun@@ 40957
but@@ 40952
gation 40942
47 40938
alists 40936
initial 40930
Inc. 40893
recru@@ 40879
continuing 40843
intended 40842
ax@@ 40837
Ministry 40833
Capital 40806
brain 40801
ester 40800
hoping 40795
ining 40783
half-@@ 40783
rare 40781
stre@@ 40756
prosecutors 40754
Bol@@ 40749
pain 40747
les@@ 40730
fish 40723
sher 40716
coast 40708
and-@@ 40690
Among 40682
Olympics 40676
essing 40652
bringing 40639
hot 40639
med@@ 40611
aver@@ 40606
ough 40573
allegedly 40566
doctor 40557
eal@@ 40515
drawn 40485
savings 40467
ored 40440
perfect 40369
Tra@@ 40364
hop@@ 40360
AN 40359
Board 40358
Tony 40349
emerged 40342
facility 40337
ech@@ 40331
acts 40329
handed 40328
é@@ 40315
attacked 40307
em 40299
ices 40299
og@@ 40279
allies 40272
pos@@ 40236
imm@@ 40232
tied 40192
obj@@ 40189
wing 40181
tically 40176
professor 40169
Ver@@ 40168
celebr@@ 40160
suggests 40151
colleagues 40137
formed 40111
Os@@ 40105
crow@@ 40101
haven 40082
dar@@ 40070
Ty@@ 40069
flo@@ 40050
ables 40043
icks 40041
ghts 40021
after@@ 40010
shel@@ 40003
lots 39983
dra@@ 39977
ric 39955
separ@@ 39950
39 39938
unable 39936
Arizona 39934
author 39925
2011 39903
fashion 39900
solution 39892
specific 39885
fallen 39874
determined 39863
studies 39850
auth@@ 39837
Bul@@ 39831
writer 39805
stands 39801
phones 39785
ing-@@ 39776
weak@@ 39767
capacity 39760
turning 39742
secret 39738
det@@ 39733
picked 39720
ki 39707
rap@@ 39684
rooms 39677
Sun@@ 39634
internet 39616
established 39601
improved 39599
Charles 39593
mit@@ 39592
fol@@ 39586
thr@@ 39583
anda 39579
Fr@@ 39578
collapse 39573
di 39573
Ap@@ 39572
saf@@ 39564
mates 39559
suffering 39530
bottom 39526
eyes 39511
Post 39510
dance 39507
3,@@ 39491
feeling 39484
fun@@ 39479
influ@@ 39466
sets 39463
Michigan 39444
lers 39426
clients 39396
commission 39379
winter 39365
nature 39319
St 39311
vac@@ 39307
driven 39296
severe 39288
digital 39286
Church 39235
consider@@ 39215
yer 39211
crimes 39202
fast@@ 39201
Fl@@ 39198
Air@@ 39194
estimates 39176
Law@@ 39163
restaurant 39157
J 39136
roll 39129
voting 39122
six-@@ 39107
Ob@@ 39086
Bre@@ 39079
remember 39068
ger@@ 39060
Home 39053
Hon@@ 39029
W. 39025
easily 39025
critics 39003
essions 38977
Ki@@ 38950
mir@@ 38939
shareholders 38930
citizens 38927
struc@@ 38903
BS 38848
relatively 38839
Cur@@ 38833
vic@@ 38828
sight 38798
facilities 38790
deputy 38789
ually 38763
immediate 38761
plan@@ 38760
dered 38759
conduct 38729
clin@@ 38706
Bra@@ 38703
kill 38697
involving 38696
limit 38689
healthy 38680
visitors 38676
proposals 38672
agent 38657
phys@@ 38648
Lan@@ 38648
Sto@@ 38643
prove 38630
distribu@@ 38612
sured 38610
nation@@ 38610
dering 38600
contrac@@ 38577
BST 38568
expects 38568
interests 38554
ounding 38543
ood 38539
aps 38531
enh@@ 38525
singer 38516
sses 38488
Irish 38477
individuals 38466
ailed 38464
completely 38463
dom 38457
assault 38445
tan@@ 38393
allows 38387
surprise 38377
50@@ 38370
err@@ 38359
fewer 38337
sel 38334
respect 38334
deliver 38290
tie 38286
ount 38285
collection 38260
bert 38246
grade 38233
defence 38226
breaking 38205
communities 38194
sons 38191
Senator 38167
oes 38128
supported 38123
dig@@ 38116
eded 38106
Francisco 38087
Roc@@ 38041
clean 38029
combined 38021
stories 37994
aying 37990
ken 37988
pressed 37973
Tal@@ 37972
character 37953
flights 37949
Val@@ 37942
suspended 37935
Ash@@ 37934
core 37916
Spanish 37911
creating 37905
filled 37901
owns 37898
films 37893
closing 37881
aker 37877
percentage 37871
entered 37869
q@@ 37818
Port@@ 37817
00,000 37811
Woods 37786
Toyota 37755
rest@@ 37735
starts 37728
g-@@ 37721
dings 37721
possibility 37720
pushed 37714
Defense 37703
meetings 37691
zen 37680
Can@@ 37674
Sad@@ 37668
birth 37660
http 37644
od 37630
count 37603
11@@ 37599
Administration 37590
pace 37576
dy@@ 37570
deal@@ 37565
va 37559
Brazil 37558
roads 37543
innings 37542
Lea@@ 37536
LE@@ 37529
arri@@ 37524
alternative 37524
familiar 37518
l-@@ 37517
Tw@@ 37503
relief 37497
100@@ 37495
Rom@@ 37489
located 37479
ind 37451
49 37429
insisted 37421
award 37402
spe@@ 37389
soci@@ 37387
fire@@ 37385
scoring 37380
pric@@ 37368
factors 37365
leg 37359
43 37320
mass 37319
conducted 37318
posing 37289
bla@@ 37289
violent 37288
listed 37285
Jim 37285
Murray 37270
Ryan 37260
modi@@ 37249
bled 37244
drew 37236
opinion 37219
connection 37215
Op@@ 37213
shops 37203
Cas@@ 37200
telling 37199
gged 37194
Canadian 37174
ris@@ 37156
Pan@@ 37140
marked 37139
offices 37132
enter@@ 37130
polic@@ 37124
bigger 37114
finals 37099
agents 37098
swe@@ 37096
unless 37094
fla@@ 37092
mine 37086
argued 37069
ould 37068
forms 37068
West@@ 37059
tain 37043
Arab 37025
healthcare 37001
Jam@@ 36997
46 36989
27@@ 36980
write 36973
Jan 36973
recorded 36973
gay 36972
ows 36961
lay@@ 36959
Reserve 36958
99 36957
entry 36951
bow@@ 36949
ome 36949
learned 36944
currency 36943
euros 36930
Only 36930
drivers 36917
adv@@ 36910
positions 36902
41 36898
revol@@ 36874
investigators 36869
ser 36849
descri@@ 36846
physical 36845
IT@@ 36844
dol@@ 36825
ga@@ 36818
Moscow 36809
hoped 36800
motor@@ 36791
ales 36775
RE@@ 36770
bes 36767
sy 36761
Ste@@ 36759
enders 36730
Christian 36726
presented 36726
Ko@@ 36724
sea@@ 36723
walked 36715
removed 36715
fly 36711
ald 36709
rock 36706
thi@@ 36704
Facebook 36698
acti@@ 36694
lock 36691
corruption 36689
closer 36682
San@@ 36664
endor@@ 36653
mand@@ 36625
Like 36583
Go@@ 36549
goods 36538
testing 36536
anks 36530
teachers 36517
civilians 36501
AA 36487
40@@ 36478
ena 36473
post-@@ 36468
26@@ 36456
satis@@ 36451
burg 36448
seriously 36429
ective 36407
the-@@ 36407
Green@@ 36390
Hea@@ 36366
stood 36358
possibly 36323
nit@@ 36305
embr@@ 36290
inspec@@ 36280
sav@@ 36276
animals 36258
28@@ 36255
lights 36245
Sept 36237
images 36214
rey 36214
Great 36202
uring 36198
Kevin 36195
Earlier 36194
ron@@ 36175
interested 36162
rivals 36143
pression 36137
challenges 36136
commitment 36134
Rea@@ 36123
ains 36122
Stephen 36116
generally 36115
Indi@@ 36114
captain 36107
extended 36098
dist@@ 36089
govern@@ 36089
changing 36071
increases 36051
lending 36048
The@@ 36027
kins 36027
bills 36017
fron@@ 35994
AT 35985
tain@@ 35948
tin@@ 35946
SA 35934
attend 35927
maybe 35917
Because 35824
wards 35821
arly 35809
ero@@ 35806
posi@@ 35805
location 35795
Dar@@ 35761
arrang@@ 35759
Ben 35755
airline 35746
wr@@ 35731
Red@@ 35713
supplies 35687
wins 35665
Don 35651
Philadelphia 35643
sentenced 35635
CI@@ 35634
ues 35628
worried 35598
sible 35597
class@@ 35579
uck@@ 35576
delivery 35568
Co 35568
determine 35568
ports 35561
album 35545
sively 35537
powers 35512
Rod@@ 35479
stress 35457
spea@@ 35456
ros@@ 35446
offensive 35446
dit 35424
dark 35380
Gov. 35345
shment 35344
Iowa 35336
ceremony 35323
ave 35311
occurred 35302
Hor@@ 35291
cards 35286
inquiry 35263
Ron@@ 35255
particip@@ 35254
settlement 35246
ead 35231
Fox 35227
delivered 35225
Games 35206
flat 35205
crude 35201
Ker@@ 35200
ron 35196
Tro@@ 35195
odd 35194
retired 35176
wealth 35164
pool 35158
Na@@ 35158
reporting 35085
custody 35082
Hal@@ 35075
controlled 35065
sixth 35034
spir@@ 35021
Brian 35016
lic@@ 35004
sending 35004
hair 35003
Medical 34986
e-mail 34981
strength 34979
Life 34972
younger 34962
watched 34953
shut 34919
revenues 34916
God 34905
Black 34864
buyers 34831
alised 34814
controversial 34807
stations 34805
3,000 34794
sent@@ 34777
Turkey 34776
stab@@ 34774
democracy 34773
pal@@ 34770
aching 34766
contracts 34760
.. 34749
AS@@ 34746
gains 34739
urban 34725
tax@@ 34689
year-@@ 34677
heavily 34671
blue 34661
igh@@ 34657
Fri@@ 34652
hole 34651
telephone 34650
charity 34633
eri@@ 34624
Taylor 34621
M. 34613
third-@@ 34613
grown 34598
Lewis 34594
payment 34590
bankruptcy 34584
hi 34566
600 34548
less@@ 34546
weak 34542
etary 34529
aren@@ 34522
NATO 34521
Daily 34520
Uni@@ 34480
afford 34459
ase 34455
Over 34450
opportunities 34449
SP@@ 34448
gained 34447
cold 34434
herself 34426
replace 34414
coo@@ 34411
ugg@@ 34401
helps 34385
t. 34383
applications 34381
ols 34380
targets 34358
-to-@@ 34340
chers 34316
initially 34313
euro 34295
regime 34295
bit@@ 34283
findings 34279
supp@@ 34271
blamed 34259
eing 34249
.A. 34247
Den@@ 34236
Judge 34217
mea@@ 34212
Ba@@ 34197
Business 34195
barrel 34177
negative 34174
Davis 34163
shortly 34160
analysis 34159
Ev@@ 34151
securities 34142
Grand 34140
Miami 34110
Hamas 34108
device 34093
experienced 34089
dispute 34086
ior 34076
inning 34060
Pacific 34059
opposed 34042
stu@@ 34036
Mel@@ 34023
suspects 34021
proved 34021
aling 34020
cop@@ 34013
eu@@ 34003
Or 33989
miss 33987
tains 33962
aking 33962
tem@@ 33959
returning 33958
she@@ 33937
achiev@@ 33931
Rob@@ 33930
judges 33911
Conference 33909
causing 33907
remin@@ 33907
frustr@@ 33883
shopping 33873
corpor@@ 33873
downturn 33868
appointed 33866
electricity 33862
La@@ 33861
organ@@ 33855
basic 33831
streng@@ 33829
stream 33820
McC@@ 33809
adults 33800
Republic 33797
War@@ 33791
ided 33778
Island 33774
Kur@@ 33766
NBC 33759
sitting 33753
units 33748
fts 33746
Stu@@ 33741
kin 33732
warming 33730
sex@@ 33726
tum@@ 33704
tionally 33679
NE@@ 33669
My@@ 33656
lu@@ 33648
dest@@ 33634
1999 33626
tured 33616
gue 33612
teacher 33604
95 33600
Dou@@ 33600
failing 33598
800 33598
mul@@ 33584
Officials 33571
matches 33555
ara 33542
pt 33542
boat 33541
Star 33525
visited 33525
vast 33521
gro@@ 33519
ideas 33519
advance 33518
friendly 33504
sees 33497
Ali 33489
terri@@ 33484
pir@@ 33474
theast 33465
oul@@ 33431
reb@@ 33415
CEO 33411
maintain 33407
chances 33406
dozens 33402
cells 33399
Before 33396
distr@@ 33396
shift 33372
Public 33362
LL@@ 33349
quick 33349
ished 33345
ko 33339
eat 33337
empha@@ 33332
cin@@ 33326
Dre@@ 33318
attended 33317
sister 33314
zation 33307
stic 33296
ed-@@ 33288
revi@@ 33265
campaig@@ 33256
ush 33249
150 33248
partners 33242
electr@@ 33240
display 33239
Tor@@ 33234
gol@@ 33228
bloo@@ 33222
ests 33219
so-called 33216
protesters 33211
Calif 33207
associated 33199
bility 33195
ss@@ 33178
sanctions 33171
Young 33165
Hong 33165
tun@@ 33162
efs 33159
enforcement 33147
accoun@@ 33100
50,000 33080
writers 33078
Whit@@ 33077
accepted 33072
dogs 33063
closely 33046
touch 33038
fill 33035
choose 33034
guy 33027
val 33024
advanced 33007
Do 33001
Dev@@ 32999
lun@@ 32997
Journal 32996
investigating 32991
mayor 32984
link 32980
eping 32976
compensation 32971
alcohol 32952
Shi@@ 32944
ached 32929
appropriate 32925
crucial 32924
Ky@@ 32910
Southern 32909
Foundation 32876
ya 32870
Four 32849
sus 32847
feature 32845
extremely 32835
GOP 32820
sh-@@ 32795
reportedly 32792
approximately 32760
pro-@@ 32759
ben@@ 32757
plac@@ 32754
ouse 32753
aring 32736
hall 32687
stom@@ 32678
plea@@ 32676
sym@@ 32658
mond 32656
missile 32654
1990s 32653
10,000 32630
virus 32627
program@@ 32604
customer 32602
ung 32598
apartment 32594
ba 32587
devices 32575
passing 32564
liter@@ 32546
combat 32544
rebels 32543
hasn 32542
recei@@ 32537
squad 32492
historic 32477
Bon@@ 32461
edi@@ 32439
replaced 32426
tian 32416
senator 32412
Sw@@ 32398
oning 32393
manufacturing 32385
fun 32376
High@@ 32372
consecutive 32368
trag@@ 32366
walking 32357
ession 32347
banned 32344
lawsuit 32342
ises 32323
shared 32308
plenty 32303
wear 32290
CH@@ 32290
medic@@ 32238
thro@@ 32234
none 32233
structure 32226
ch-@@ 32225
stable 32212
Illinois 32210
ST@@ 32193
species 32183
Atlanta 32178
song 32177
Fo@@ 32165
corner 32164
waste 32161
Pennsylvania 32157
infl@@ 32156
istic 32128
draft 32123
stein 32115
represents 32110
contest 32109
vely 32094
rely 32093
indicated 32083
10.@@ 32080
investments 32079
task 32057
beaten 32056
insul@@ 32054
doub@@ 32048
Q 32048
offs 32043
Club 32041
zy 32038
capit@@ 32022
700 32019
duty 32012
Jewish 32011
weigh@@ 32004
potentially 31987
emo@@ 31975
Sen@@ 31974
vention 31971
SE@@ 31970
rum@@ 31942
Tehran 31939
ari 31937
ign@@ 31917
assistant 31914
day@@ 31895
Will 31895
syn@@ 31895
ram@@ 31881
adju@@ 31881
ticket 31871
burn 31868
portr@@ 31868
Saudi 31860
tural 31860
Blair 31858
notes 31853
welcome 31833
elimin@@ 31833
broadcast 31828
yes 31822
kidn@@ 31821
stra@@ 31802
cing 31796
founder 31794
knowledge 31792
perc@@ 31789
commander 31786
eg@@ 31786
backs 31778
prin@@ 31761
models 31760
Ren@@ 31753
Gates 31752
Once 31738
publicly 31738
lar 31736
multiple 31730
competi@@ 31719
supposed 31708
male 31704
retirement 31701
route 31690
kin@@ 31672
drove 31663
organizations 31653
shore 31648
moves 31634
ski@@ 31629
producer 31628
isation 31628
lowest 31616
solutions 31613
affect 31608
AG@@ 31596
immigration 31594
Tour 31581
sharp 31578
ABC 31560
state-@@ 31558
mut@@ 31558
expert 31530
comb@@ 31526
broad@@ 31523
begun 31518
advis@@ 31505
ac 31487
Kong 31487
Ag@@ 31486
Bet@@ 31485
skills 31477
Catholic 31467
competitive 31454
bio@@ 31437
receiving 31430
loy@@ 31421
holders 31414
OU@@ 31410
blame 31410
Securities 31407
pull 31391
grounds 31390
emer@@ 31382
2012 31357
legi@@ 31357
territory 31356
port@@ 31353
detec@@ 31346
civilian 31341
arg@@ 31325
administr@@ 31322
bel 31288
tow@@ 31288
confident 31276
debut 31267
Gal@@ 31262
FBI 31257
edy 31250
Force 31250
team@@ 31239
Spec@@ 31221
ech 31208
Ol@@ 31180
attempts 31150
Queen 31139
questioned 31113
ata 31108
exercise 31102
Parliament 31091
ambi@@ 31088
significantly 31083
acknowledged 31078
pitch 31074
arm@@ 31072
Houston 31067
thanks 31066
execu@@ 31062
ading 31058
Frank 31056
io 31027
financing 31025
Who 31020
aur@@ 30996
arian 30996
viewed 30995
visiting 30993
animal 30992
easier 30990
cas@@ 30990
ounds 30988
Bob 30969
Kim 30965
oring 30960
oured 30960
claiming 30952
holds 30950
targeted 30943
prior 30939
acking 30930
op 30916
un 30911
21@@ 30905
freedom 30898
Mont@@ 30887
cou@@ 30885
marks 30866
mes 30856
Tha@@ 30852
€ 30840
pointed 30833
direction 30828
ast 30818
Space 30818
hospitals 30815
repeatedly 30806
journalists 30801
truth 30793
clim@@ 30787
urs 30785
movies 30749
Here 30738
deli@@ 30733
aming 30726
headquarters 30719
Ho@@ 30713
sman 30709
clubs 30705
preci@@ 30689
Miller 30681
explain 30675
Manhattan 30672
Former 30666
Oper@@ 30661
transfer 30653
managers 30649
gy@@ 30646
counter 30632
Henry 30614
ble@@ 30603
nell 30600
ko@@ 30597
abilities 30585
threw 30582
nes 30572
chain 30567
und@@ 30567
mit 30565
ince 30564
Tim 30562
Swiss 30560
24@@ 30560
100,000 30549
cho@@ 30537
puni@@ 30533
ph 30529
pon@@ 30523
River 30504
ex-@@ 30494
lined 30491
Dow 30489
overseas 30478
1.5 30468
sin 30441
Valley 30424
ow 30418
unique 30405
pop 30405
lor@@ 30402
Cel@@ 30400
pleaded 30400
championship 30395
pers 30385
flying 30384
lo 30381
parti@@ 30367
nomination 30364
ranked 30364
seized 30357
meaning 30344
ope 30332
danger 30323
appointment 30300
rub@@ 30290
IT 30284
cel@@ 30284
disaster 30282
Society 30278
snow 30272
heading 30270
Earth 30266
sco@@ 30264
buil@@ 30258
cies 30255
Kir@@ 30247
mal@@ 30244
mouth 30235
expand 30232
tel 30225
52 30220
respond 30210
liber@@ 30210
emerging 30191
Brit@@ 30184
ou 30164
migr@@ 30161
reputation 30160
rebounds 30159
fted 30154
Not@@ 30153
airs 30141
sharing 30137
agged 30136
resc@@ 30129
mortgages 30126
Alex 30106
fighters 30105
ort 30089
prac@@ 30089
Sim@@ 30076
Cro@@ 30069
oud 30063
icial 30062
neighborhood 30029
Management 30029
pension 30023
scri@@ 30012
alling 30008
supporting 30007
TA 29989
Hur@@ 29985
Rock 29980
yen 29970
gen 29969
elsewhere 29959
AS 29957
rob@@ 29955
Howard 29938
Mul@@ 29931
avo@@ 29927
tested 29923
drama 29923
struggle 29916
aded 29896
engine@@ 29894
Colorado 29893
Several 29888
subsidi@@ 29883
Far@@ 29870
alty 29858
please 29857
MP 29851
knee 29844
Andy 29839
shoo@@ 29835
comfortable 29830
theat@@ 29822
earing 29814
Trust 29801
bir@@ 29801
concentr@@ 29795
vari@@ 29795
disrup@@ 29778
portion 29774
mainly 29769
IR@@ 29760
investig@@ 29760
performed 29748
tis 29716
Louis 29713
otherwise 29710
employment 29710
direc@@ 29708
viewers 29700
myself 29680
ING 29674
poses 29669
tation 29669
Daniel 29664
rol@@ 29650
farm 29648
Sarkozy 29644
messages 29642
registered 29634
quoted 29630
load 29628
Edwards 29625
drinking 29623
internal 29613
Well 29607
astic 29599
fro@@ 29590
51 29582
Harry 29578
func@@ 29577
spr@@ 29577
uation 29573
ab 29572
zer 29553
prob@@ 29551
psych@@ 29541
farmers 29536
Ku@@ 29533
camera 29525
Som@@ 29525
path 29523
estimate 29520
predicted 29516
turns 29513
networks 29495
Elec@@ 29482
stea@@ 29481
opponents 29465
damaged 29462
Dubai 29460
application 29458
for-@@ 29454
artist 29445
fee 29429
Chrysler 29425
happens 29393
independence 29357
itz@@ 29352
deep@@ 29349
oms 29347
Sarah 29344
tickets 29337
greatest 29333
Gulf 29326
doors 29312
alongside 29294
kick 29283
cross 29279
bond 29274
tioned 29267
gy 29260
ayed 29231
complaints 29220
now@@ 29199
ride 29186
pushing 29180
termin@@ 29174
elev@@ 29172
temporary 29172
pictures 29160
53 29149
argument 29146
ongoing 29144
gging 29142
engine 29142
heat 29129
succ@@ 29123
aci@@ 29112
catch 29099
Though 29091
verse 29090
Yahoo 29078
p-@@ 29069
rural 29067
stem 29063
tit@@ 29059
chec@@ 29052
PRNewswire 29043
vol@@ 29037
leaves 29027
destroyed 29021
leads 29008
Tom@@ 28995
Some@@ 28992
infrastructure 28979
On@@ 28977
bud@@ 28972
flow 28971
Fund 28971
ministry 28965
veteran 28964
yn 28962
AI@@ 28930
La 28919
Er@@ 28913
returns 28908
reg@@ 28906
ounced 28906
tackle 28901
Atlantic 28889
dismissed 28880
wine 28862
circumstances 28860
85 28857
Jack 28852
Hen@@ 28852
terror 28845
identify 28840
Sou@@ 28839
ris 28838
identi@@ 28837
fix@@ 28833
Miss 28822
founded 28821
attempted 28819
anniversary 28807
tering 28802
split 28793
Old 28793
princi@@ 28788
hitting 28776
argo 28772
stun@@ 28751
jumped 28739
Massachusetts 28739
icians 28737
oner 28737
variety 28727
auto 28726
cable 28716
Wol@@ 28705
pes 28704
abroad 28703
tiny 28700
faith 28675
usual 28665
gin 28662
Rep. 28638
Coast 28632
reduction 28631
oul 28628
ti 28613
guarante@@ 28608
sit@@ 28607
54 28606
Jen@@ 28598
enjoy 28596
IS 28578
Coo@@ 28574
tal 28574
activists 28572
oni@@ 28572
tigh@@ 28569
apply 28555
worry 28543
explained 28540
eling 28540
Chi@@ 28535
encourage 28527
values 28524
benef@@ 28515
commit@@ 28515
affairs 28506
Arsenal 28503
devast@@ 28498
encing 28486
Nov 28469
square 28453
regi@@ 28442
becomes 28438
ots 28436
Paul@@ 28429
consult@@ 28426
dil@@ 28425
negoti@@ 28419
delegates 28413
jum@@ 28406
courts 28405
Tot@@ 28392
ght@@ 28373
nomin@@ 28373
reti@@ 28372
itor 28342
cultural 28340
Diego 28336
DA@@ 28327
Zealand 28314
fel@@ 28309
ethnic 28307
Yankees 28306
Minnesota 28305
actual 28302
Pu@@ 28295
employed 28282
Pet@@ 28266
ull 28263
versal 28255
Tre@@ 28251
equi@@ 28249
bonds 28243
coordin@@ 28242
of-@@ 28237
DC 28235
assistance 28227
blow 28213
ustin 28213
1997 28211
Such 28209
Gil@@ 28199
May@@ 28199
29@@ 28199
Ph@@ 28174
ful@@ 28173
wid@@ 28171
Cr@@ 28169
Liber@@ 28165
whatever 28163
NHS 28155
aled 28152
properties 28147
reducing 28146
liqu@@ 28127
matters 28114
worker 28110
Star@@ 28104
achieve 28101
doc@@ 28100
hood 28100
Can 28097
PE@@ 28090
Haiti 28090
Year 28075
Dal@@ 28071
Sum@@ 28070
Sec@@ 28069
impossible 28069
Chairman 28069
Oct 28065
Alan 28042
funded 28038
tories 28038
icts 28033
Every@@ 28025
threatening 28021
pack@@ 28019
ens@@ 28017
bin 28014
sia 28010
ssing 28008
demands 28001
Robinson 27997
understanding 27994
Corporation 27994
visions 27990
reaching 27988
imag@@ 27982
photo@@ 27970
dinner 27969
billions 27951
pound 27945
Lau@@ 27939
manufac@@ 27934
interesting 27932
Hus@@ 27920
seasons 27895
• 27892
glass 27883
rup@@ 27877
favorite 27872
1998 27869
window 27852
guards 27845
evol@@ 27840
argue 27832
festival 27829
trend 27828
AB@@ 27825
river 27811
factor 27808
troubled 27794
beating 27783
agenda 27782
part@@ 27772
entertainment 27764
delay 27750
SE 27731
12-@@ 27725
Blue 27719
ola 27710
museum 27705
text 27666
But@@ 27662
labor 27654
Spr@@ 27652
learning 27652
roughly 27652
grand 27643
unist 27636
Bang@@ 27635
testi@@ 27632
gathered 27622
rence 27617
adviser 27611
neither 27606
perform 27603
awarded 27603
Palestinians 27596
ury 27578
pieces 27573
outh 27573
alive 27572
aside 27567
institu@@ 27548
practices 27545
anny 27545
Vol@@ 27539
lining 27538
Donald 27537
Simon 27529
Je@@ 27521
fer 27517
requires 27516
Allen 27511
refer@@ 27508
arily 27502
transport 27495
arts 27495
strategic 27495
stitute 27481
4,@@ 27476
skin 27474
Wilson 27463
Time 27451
monthly 27443
gal 27441
factory 27438
dramatic 27437
Maryland 27435
identity 27421
esses 27420
clu@@ 27419
bound 27419
tia 27415
enting 27415
limits 27408
personnel 27408
Soviet 27405
remove 27404
tight 27403
counts 27397
nie 27395
stuff 27389
20-@@ 27384
Fer@@ 27384
expansion 27383
boss 27369
trees 27367
wonder 27361
plun@@ 27359
scandal 27357
pilot 27357
Ca@@ 27352
apart 27346
electric 27342
Analysts 27341
calcul@@ 27336
anim@@ 27327
effectively 27327
promp@@ 27325
23@@ 27313
insi@@ 27302
understood 27296
ini 27294
oph@@ 27291
threats 27284
associ@@ 27283
é 27281
NFL 27277
FA 27277
fought 27269
conv@@ 27267
Eastern 27252
laun@@ 27249
asp@@ 27242
pled 27239
ested 27238
Global 27236
unusual 27236
wea@@ 27228
minor 27228
wit@@ 27226
Human 27221
dam 27221
Children 27207
Test 27201
Executive 27182
prompted 27180
bian 27171
e. 27164
platform 27164
Musharraf 27160
Dec 27158
moder@@ 27154
Dallas 27153
wave 27150
broadca@@ 27137
yl@@ 27136
surge 27134
truck 27126
itt 27123
57 27112
thinks 27108
sty 27091
ello 27090
materials 27086
fan 27081
bag 27070
awa@@ 27066
artists 27059
photos 27046
machine 27044
ert 27043
Fol@@ 27037
flu@@ 27037
promise 27031
surrounding 27029
Eng@@ 27019
advoc@@ 27018
occup@@ 27017
Ow@@ 27013
songs 27006
sat 26997
aster 26997
USA 26983
D. 26982
auction 26974
bid@@ 26973
Conservative 26969
Gib@@ 26955
BE@@ 26942
responded 26938
string 26920
aked 26903
oblig@@ 26902
surprised 26878
venture 26877
onal 26874
Enter@@ 26870
quarter@@ 26855
gn@@ 26851
earn 26842
memory 26829
directed 26822
witnesses 26811
bly 26806
dealing 26805
announ@@ 26803
illed 26799
announce 26797
sharply 26792
slo@@ 26782
liberal 26779
ologist 26766
widespread 26766
compar@@ 26761
nice 26747
dom@@ 26745
technical 26741
stages 26737
begins 26735
eating 26735
loved 26735
locked 26729
nal 26729
pin@@ 26725
Por@@ 26725
Stock 26720
tel@@ 26720
pc 26718
except 26713
rever@@ 26709
employee 26693
neighbor@@ 26686
seventh 26684
Regi@@ 26667
ON 26657
discussion 26657
contrast 26656
captured 26645
regulation 26631
incenti@@ 26622
gap 26620
lowing 26611
at-@@ 26599
entirely 26598
scores 26579
Alaska 26577
Attorney 26576
promote 26575
iter@@ 26574
night@@ 26572
actress 26569
owed 26563
Environ@@ 26562
compete 26558
false 26556
wild 26542
rout@@ 26536
proce@@ 26521
shr@@ 26521
66 26518
iPhone 26507
broad 26506
clothes 26505
bits 26493
Next 26487
swi@@ 26486
eigh@@ 26482
eries 26480
eve 26469
shape 26468
boar@@ 26465
taining 26465
prisoners 26464
brief 26459
originally 26452
aim 26442
meth@@ 26437
stro@@ 26433
spac@@ 26419
eland 26418
pledged 26411
introduc@@ 26404
graphy 26403
Museum 26401
56 26392
Lam@@ 26383
Hay@@ 26381
Cuba 26379
emic 26375
consul@@ 26375
tomorrow 26374
surface 26374
Show 26365
restaurants 26359
58 26350
Rev@@ 26347
preparing 26322
remarks 26321
bi 26303
regulators 26303
therapy 26301
code 26294
A. 26273
Super 26270
partnership 26270
lenders 26267
ok@@ 26267
ose 26256
parliamentary 26254
efficient 26251
Dem@@ 26247
margin 26233
angry 26213
rati@@ 26212
RO@@ 26212
Luc@@ 26209
je@@ 26206
1980s 26200
Mary 26193
kov@@ 26190
sian 26190
schedule 26188
reaction 26188
ket@@ 26187
minority 26178
foreclo@@ 26177
stepped 26168
resolution 26168
ome@@ 26162
59 26162
12.@@ 26160
Your 26146
cy 26144
trillion 26141
Karzai 26140
soldier 26136
nationwide 26133
bloc@@ 26133
commod@@ 26128
speculation 26120
collapsed 26118
discussed 26117
recovered 26115
irs 26110
justi@@ 26105
uel 26102
lad@@ 26097
manage 26097
priority 26097
Goldman 26095
managing 26091
colli@@ 26088
detained 26087
diplomatic 26075
deeply 26072
C. 26067
counc@@ 26065
forcing 26065
Tam@@ 26061
regulatory 26053
extend 26051
represent 26050
vulnerable 26035
Development 26030
Sea 26025
mad 26013
electronic 26009
stronger 26006
Hum@@ 25998
tens 25997
Food 25996
Fe@@ 25995
Anthony 25995
Dutch 25993
web@@ 25973
client 25970
Sand@@ 25969
Kansas 25961
golf 25959
signing 25957
ada 25937
resort 25937
illu@@ 25922
ricane 25911
presidency 25897
spar@@ 25897
Cleveland 25895
Authorities 25892
posed 25891
cited 25890
abortion 25886
wake 25885
permanent 25884
legally 25875
planes 25858
sleep 25854
improvement 25842
colum@@ 25839
youth 25831
fundam@@ 25827
Hampshire 25826
Radio 25817
lift 25814
ides 25814
strategi@@ 25814
drawing 25813
Matt 25809
Nick 25802
discussions 25790
spoken 25783
ha 25782
swine 25769
hire 25764
Vegas 25764
tom@@ 25758
Egypt 25757
restrictions 25756
ells 25749
acceler@@ 25748
holder 25738
Anderson 25734
appe@@ 25731
wish 25728
chair 25726
Medic@@ 25724
ree 25723
organis@@ 25722
i-@@ 25708
Navy 25704
stitution 25703
Rus@@ 25701
ette 25696
uding 25695
luxury 25694
conclu@@ 25694
ys@@ 25694
sup@@ 25690
tab@@ 25689
confron@@ 25679
Pentagon 25676
document 25671
lay 25639
behavior 25639
won@@ 25625
gotten 25616
gall@@ 25616
icking 25614
strikes 25612
fam@@ 25608
backing 25605
toll 25601
overnight 25600
LA 25597
cab@@ 25596
ella 25591
de-@@ 25584
ME@@ 25584
minimum 25580
typically 25570
Bowl 25567
ump 25564
Authority 25559
Mat@@ 25555
preven@@ 25553
iling 25549
vital 25546
essive 25543
ician 25537
Profile 25523
dominated 25522
Feb 25522
ier 25518
relatives 25518
struggled 25514
forward-looking 25505
edition 25503
cycle 25503
DNA 25498
deser@@ 25493
dry 25492
communications 25491
pass@@ 25484
rown 25479
Indu@@ 25474
ult 25466
operate 25462
every@@ 25462
concluded 25458
Boy@@ 25453
Academy 25453
= 25445
overwhel@@ 25442
one@@ 25429
Are 25428
han 25427
accomp@@ 25420
tells 25419
patter@@ 25416
feels 25415
semi-@@ 25414
discipl@@ 25409
NASA 25403
2-year-old 25401
streak 25396
fields 25392
Cy@@ 25391
Fa@@ 25390
Ian 25388
eff@@ 25388
Let 25385
tened 25385
sear@@ 25385
congressional 25378
Mexican 25378
AP@@ 25376
pm 25374
tes 25371
ultimately 25368
earthquake 25359
fled 25355
appreci@@ 25353
4,000 25350
drink 25348
distribution 25342
parent 25316
TH@@ 25303
teen 25302
voc@@ 25301
obvious 25300
passes 25295
unclear 25293
Rol@@ 25288
joining 25287
Hy@@ 25278
Ahmadinejad 25278
partly 25268
20,000 25257
poverty 25252
sch@@ 25252
Boo@@ 25245
Pittsburgh 25238
business@@ 25237
baseball 25234
letters 25220
regulations 25218
Jason 25206
notice 25201
improving 25194
67 25189
chosen 25183
Twitter 25179
novel 25168
ly-@@ 25152
fare 25150
resol@@ 25149
15-@@ 25138
DV@@ 25138
ait 25135
regarding 25135
techn@@ 25132
yourself 25124
fail@@ 25123
multi@@ 25116
inspired 25114
prize 25110
top-@@ 25109
passenger 25108
citing 25102
Christi@@ 25096
strongly 25088
bombing 25079
survived 25064
popul@@ 25062
aggressive 25052
plastic 25044
Mun@@ 25044
instance 25043
militant 25043
trained 25034
dates 25025
floo@@ 25023
granted 25023
falls 25022
oo 25016
Las 25014
Stanley 25007
ich@@ 24997
tries 24994
keeper 24993
tend 24985
talent 24984
exist@@ 24983
links 24979
combination 24978
quar@@ 24958
Med@@ 24946
Ta@@ 24945
instruc@@ 24944
64 24937
sional 24934
native 24929
invited 24908
erson 24908
Champions 24908
rating 24906
Franc@@ 24904
radi@@ 24884
D.C. 24881
awards 24879
constitu@@ 24876
lot@@ 24875
establi@@ 24875
treat 24871
bailout 24862
scientific 24858
formal 24849
causes 24845
bonuses 24829
outcome 24827
Beach 24826
Quote 24817
computers 24805
tox@@ 24789
trou@@ 24786
stry 24784
foot@@ 24779
Patrick 24763
proper 24756
eighth 24756
Sar@@ 24747
illy 24747
delayed 24737
mention 24735
properly 24719
LOS 24715
dress 24710
tree 24707
pressing 24704
fit@@ 24702
immigrants 24699
mixed 24698
Romney 24688
unions 24684
ust 24682
young@@ 24676
vaccine 24672
bott@@ 24665
ER 24659
sized 24654
surve@@ 24652
ror 24650
Mand@@ 24646
stum@@ 24640
tivity 24638
athle@@ 24637
suring 24631
Dr@@ 24628
itting 24626
ackers 24625
represented 24623
Rangers 24610
helicopter 24608
favor 24607
vy 24604
enthusi@@ 24604
badly 24600
iness 24599
68 24593
ize 24593
implem@@ 24585
file 24583
tual 24583
Eric 24573
connected 24570
Columbia 24555
coal 24541
certi@@ 24540
stayed 24539
yers 24538
Lind@@ 24538
real@@ 24526
involvement 24519
imposed 24504
thers 24497
ala 24491
lam@@ 24480
dou@@ 24475
economies 24474
unity 24472
tak@@ 24464
papers 24462
Sul@@ 24453
sensitive 24449
initiative 24449
entary 24446
ario 24442
esh 24438
subsequ@@ 24437
red@@ 24437
prospect 24420
Nasdaq 24415
off-@@ 24413
rough 24411
ander 24398
dum@@ 24396
est-@@ 24395
suits 24387
downs 24386
bot@@ 24384
Crown 24381
mits 24373
apol@@ 24366
eful 24364
seas@@ 24358
spective 24358
62 24357
Mur@@ 24356
anxi@@ 24351
Media 24346
elec@@ 24337
250 24335
Real 24335
insurgents 24331
regularly 24331
HI@@ 24328
producers 24301
follows 24299
Perhaps 24294
Professor 24293
absolutely 24292
employ@@ 24292
Thompson 24277
essential 24267
ester@@ 24258
Stadium 24256
distance 24253
prise 24249
Santa 24249
Cent@@ 24243
At@@ 24236
Greece 24235
estion 24227
numerous 24227
Each 24218
aig@@ 24212
gang 24210
explosion 24208
vir@@ 24204
isol@@ 24196
Hamilton 24186
reas@@ 24185
adult 24182
studio 24178
asset 24171
Play@@ 24169
Seattle 24168
Phil@@ 24162
carri@@ 24159
pper 24151
ca 24141
saving 24134
harder 24133
talked 24127
Sain@@ 24126
analy@@ 24124
successfully 24124
touchdown 24123
stic@@ 24114
Ann@@ 24107
Kat@@ 24106
anding 24103
my@@ 24103
div@@ 24101
set@@ 24096
dur@@ 24095
escape 24092
Jud@@ 24089
guns 24088
satellite 24085
contem@@ 24085
criticized 24082
acle 24079
Jose 24078
dle 24077
lins 24069
econom@@ 24068
editor 24062
oration 24060
stick 24060
const@@ 24056
beautiful 24054
spo@@ 24052
producing 24052
trol 24052
CIA 24050
Gir@@ 24046
roy@@ 24045
bet@@ 24044
72 24043
Wright 24042
ANGELES 24039
saved 24033
busy 24032
lik@@ 24005
se-@@ 23995
excl@@ 23994
lon@@ 23992
symp@@ 23991
bon@@ 23986
pow@@ 23985
requirements 23981
lap@@ 23979
behaviour 23977
rad@@ 23970
len 23968
laid 23955
wind@@ 23952
60@@ 23947
garden 23940
Pow@@ 23940
importance 23927
diplom@@ 23926
blast 23923
bia 23923
hired 23922
Lake 23922
fav@@ 23917
Channel 23917
Comp@@ 23916
thor@@ 23916
directors 23911
PRNewswire-FirstCall 23909
performing 23905
Al-@@ 23899
IP@@ 23885
outstanding 23883
over-@@ 23877
gor@@ 23874
types 23870
eting 23867
reck@@ 23863
apparent 23855
sugg@@ 23855
Yes 23854
aning 23853
micro@@ 23853
ggs 23846
ji@@ 23846
sley 23845
aster@@ 23838
stretch 23837
tren@@ 23835
stability 23814
Ban@@ 23810
mili@@ 23804
Hi@@ 23804
stly 23803
Web@@ 23800
ro 23799
extr@@ 23793
00-@@ 23792
maximum 23790
ratings 23786
behalf 23777
stret@@ 23774
Fac@@ 23772
Long 23772
Juli@@ 23771
equivalent 23770
Tokyo 23765
indeed 23755
e--@@ 23754
cell@@ 23754
embarr@@ 23751
quarters 23739
rog@@ 23737
omin@@ 23735
Chil@@ 23716
Ken@@ 23714
idity 23710
tier 23707
stressed 23707
voy 23704
bail 23692
Orleans 23690
mar 23685
audi@@ 23683
frequ@@ 23673
Dam@@ 23672
ood@@ 23671
citi@@ 23671
riots 23670
Kelly 23669
ania 23663
comedy 23662
Pic@@ 23662
Mayor 23644
fat 23640
Lat@@ 23636
ict 23634
Man 23631
fail 23625
poc@@ 23616
jump 23612
truly 23610
Fu@@ 23609
handle 23608
Standard 23603
bags 23586
Joseph 23584
U.S.-@@ 23583
regions 23583
peak 23578
ject 23578
faster 23577
beach 23574
reflect 23574
attrac@@ 23565
fir@@ 23562
stolen 23560
protec@@ 23552
ene@@ 23551
scen@@ 23549
partisan 23545
raw@@ 23545
mani@@ 23536
hard-@@ 23529
ille 23525
hardly 23515
reserves 23510
water@@ 23506
substantial 23504
ort@@ 23493
tourists 23485
Lloy@@ 23479
tons 23471
economists 23469
Swe@@ 23465
plot 23463
Every 23463
Hom@@ 23460
adap@@ 23456
Series 23449
aly@@ 23444
photo 23442
contained 23439
ki@@ 23439
Centre 23439
musical 23435
futures 23434
net@@ 23429
mix 23426
adop@@ 23426
Govern@@ 23424
complained 23418
chem@@ 23416
reforms 23414
moments 23412
right-@@ 23412
alled 23405
differences 23405
cap 23402
Ha@@ 23395
Sing@@ 23384
olds 23382
enjoyed 23381
exports 23379
aced 23363
Sudan 23361
ett 23357
emotional 23357
seed 23355
Social 23354
pot@@ 23351
establish 23344
Avenue 23338
ingham 23336
Corp 23325
BC 23313
capable 23312
dru@@ 23299
defensive 23297
itary 23297
guys 23292
ona 23289
nominee 23285
alties 23282
Rio 23281
interviews 23266
aya 23259
consci@@ 23257
fran@@ 23250
rein@@ 23248
detailed 23243
Ath@@ 23232
pet 23232
ety 23231
tro 23227
Loc@@ 23226
waters 23216
istr@@ 23210
panic 23208
lau@@ 23203
locations 23197
actors 23196
collabor@@ 23196
acquisition 23172
oli@@ 23171
Rice 23167
solid 23165
-and-@@ 23158
onics 23157
pa@@ 23156
resid@@ 23152
warm 23152
porting 23148
Muslims 23145
11.@@ 23142
amounts 23142
stop@@ 23137
Championship 23127
cling 23123
representing 23113
retailers 23101
Cow@@ 23100
63 23100
deadline 23080
pursu@@ 23068
prominent 23066
cler@@ 23066
cheap 23065
facts 23064
adopted 23058
association 23055
tious 23050
instr@@ 23038
BA 23035
PA 23034
Cer@@ 23027
shop@@ 23022
bac@@ 23021
prosecution 23009
itch 23004
tings 22996
web 22995
Oil 22992
Director 22987
sac@@ 22978
fant@@ 22977
oke 22967
ry@@ 22964
expense 22963
road@@ 22958
37@@ 22950
xon 22945
titles 22938
-of-@@ 22918
newspapers 22917
resp@@ 22907
see@@ 22904
mp 22897
Zimbabwe 22894
remote 22891
Rights 22886
whol@@ 22879
try@@ 22874
remov@@ 22874
Federer 22871
concert 22868
Jeff@@ 22866
Ferguson 22860
Abu 22859
2.5 22853
Putin 22852
timate 22846
motiv@@ 22841
uted 22840
swim@@ 22823
blog 22814
38@@ 22807
assi@@ 22805
spl@@ 22801
output 22792
newly 22781
metal 22780
characters 22780
brief@@ 22779
interc@@ 22761
solar 22760
no-@@ 22755
fielder 22751
complaint 22751
destro@@ 22744
mail 22743
rick 22741
ext@@ 22734
FO@@ 22730
primarily 22729
arren 22727
illness 22725
multi-@@ 22724
winners 22722
amm@@ 22706
Av@@ 22705
winds 22701
acknowl@@ 22682
Lev@@ 22677
jailed 22675
Tory 22675
blu@@ 22674
master 22673
cer 22670
meanwhile 22662
empty 22661
outlook 22650
updated 22649
selection 22646
turn@@ 22642
upset 22642
Mugabe 22638
astr@@ 22638
them@@ 22636
ames 22635
creation 22633
acker 22626
employers 22626
Maj@@ 22623
consequences 22615
1995 22602
sequ@@ 22600
shoulder 22596
Hotel 22588
DI@@ 22588
connec@@ 22585
cameras 22584
Fil@@ 22579
dream 22573
ought 22572
bear 22571
Latin 22570
en-@@ 22570
assessment 22570
Ve@@ 22567
mistake 22567
ffs 22567
airlines 22566
desire 22564
zon 22557
intense 22553
appl@@ 22551
UN@@ 22538
transl@@ 22536
30-@@ 22531
stal 22529
rol 22528
smo@@ 22522
Moun@@ 22517
salary 22508
terrorists 22504
lev@@ 22503
Rel@@ 22502
SC@@ 22501
concer@@ 22491
Biden 22487
Over@@ 22486
AFP 22482
dia 22480
restric@@ 22478
teenager 22459
brands 22453
Austri@@ 22451
thrown 22451
holes 22450
Citigroup 22449
coast@@ 22442
ri 22438
elers 22437
suggesting 22433
quarterback 22431
Square 22429
pregnant 22425
pharm@@ 22417
exhibition 22411
taxpayers 22410
arch@@ 22403
exten@@ 22403
AC 22399
69 22383
bour@@ 22376
crashed 22376
wild@@ 22368
THE 22368
brings 22366
mechan@@ 22364
glo@@ 22358
viewing 22352
Dor@@ 22351
quiet 22349
Invest@@ 22347
shock 22345
fli@@ 22343
S. 22340
proud 22337
renew@@ 22325
Portu@@ 22320
sho@@ 22316
Naz@@ 22313
mean@@ 22310
rolled 22298
defeated 22297
Fal@@ 22293
Gen. 22285
fini@@ 22284
anonymity 22282
Andre@@ 22272
perf@@ 22270
blocked 22263
j 22259
Women 22258
cla@@ 22257
bie 22254
Maybe 22252
own@@ 22249
informed 22246
71 22245
contin@@ 22235
volume 22231
fairly 22223
Brad@@ 22217
confirm 22216
mak@@ 22214
yed 22213
graphic 22211
overs 22209
frag@@ 22206
amed 22206
mining 22203
Law 22202
Frank@@ 22199
mountain 22193
UR@@ 22191
provider 22187
Denver 22185
deadly 22183
shut@@ 22180
Han@@ 22180
Airlines 22171
Edinburgh 22169
Sun 22165
selected 22164
invest 22163
cabinet 22162
correct 22160
AL 22157
handling 22155
oted 22154
portfolio 22148
discrimin@@ 22146
wil@@ 22142
Vill@@ 22131
anging 22129
fortun@@ 22126
impl@@ 22124
excellent 22109
psy@@ 22103
1970s 22095
ard@@ 22092
readers 22089
sun 22086
achieved 22083
argu@@ 22078
agricul@@ 22078
L. 22077
wee@@ 22075
Clar@@ 22070
Sri 22067
ov 22063
mph 22053
recall 22046
ba@@ 22041
refu@@ 22028
possession 22022
guests 22021
exposed 22018
life@@ 22018
Sm@@ 22012
gin@@ 22009
Taiwan 22002
ws 21995
stadium 21988
filing 21979
deliber@@ 21963
bo 21956
Raf@@ 21956
gross 21951
Det@@ 21944
Sony 21943
61 21941
settled 21940
11-@@ 21940
Vice 21938
barri@@ 21937
ker@@ 21936
orities 21936
ans@@ 21928
clinical 21927
ter-@@ 21918
recommended 21913
Reid 21910
cia 21908
Stewart 21907
draw@@ 21903
nett 21899
proof 21899
ender 21898
Airport 21895
bright 21888
takeover 21886
wat@@ 21884
eller 21882
purpose 21878
qualified 21871
subst@@ 21864
tribal 21863
sick 21863
deliver@@ 21863
prai@@ 21855
ali 21845
veness 21835
es-@@ 21833
CC 21827
Steven 21826
thri@@ 21825
conserv@@ 21823
reluct@@ 21820
unications 21819
Glasgow 21818
secured 21818
survive 21815
cuit 21812
controls 21810
ero 21804
Part@@ 21802
Poland 21795
oney 21794
spons@@ 21786
Berlin 21784
,000-@@ 21774
obtained 21773
manufacturers 21770
smoking 21770
witness 21769
suddenly 21767
investor 21747
demanded 21744
brary 21742
Lis@@ 21740
risen 21737
journey 21734
prepare 21727
Giants 21727
prosec@@ 21724
Best 21722
moon 21721
Hou@@ 21717
ling@@ 21714
Indiana 21708
correc@@ 21708
Poli@@ 21706
log@@ 21702
sty@@ 21699
asses 21698
fined 21697
birds 21693
breaks 21692
obile 21683
promises 21678
cleared 21678
gas@@ 21676
Jac@@ 21672
acquired 21668
Fran@@ 21659
Bern@@ 21659
belief 21656
convention 21656
myster@@ 21655
traded 21650
1996 21646
commer@@ 21642
Jeff 21640
rious 21639
guarantee 21636
asser@@ 21635
therefore 21635
Produc@@ 21634
exposure 21631
wher@@ 21628
Doc@@ 21625
uro@@ 21622
Ever@@ 21618
tune 21611
affair 21610
recalled 21609
ita 21607
weren 21602
year@@ 21598
yi@@ 21596
lifted 21592
step@@ 21592
tra@@ 21591
Medicare 21590
elson 21586
coffee 21584
impressive 21581
distinc@@ 21574
Argentina 21571
illi@@ 21568
chose 21567
equal 21565
missions 21565
Roger 21552
classic 21550
ized 21548
vey 21547
Mir@@ 21542
Switzerland 21537
rement 21537
Christopher 21534
Adam 21534
construc@@ 21531
Jes@@ 21526
symptoms 21524
graph@@ 21523
prot@@ 21513
harm 21506
fixed 21506
agre@@ 21504
ounce 21491
ninth 21490
Fore@@ 21487
promising 21482
prosecutor 21481
specialist 21477
Warner 21473
Six 21472
stan 21471
Low@@ 21466
officially 21464
ox@@ 21454
Az@@ 21454
sever@@ 21450
MI@@ 21444
likes 21432
trials 21426
entr@@ 21425
unveiled 21422
Carter 21419
Belgi@@ 21418
amp 21417
commis@@ 21413
designer 21412
background 21412
ured 21412
gic 21407
abor@@ 21406
cus 21405
NO@@ 21405
incidents 21397
Aug 21396
normally 21394
welcomed 21393
stroke 21386
barely 21384
hotels 21381
demanding 21379
recover 21378
stated 21369
bea@@ 21368
erce 21367
iz@@ 21363
agreements 21361
raft 21357
inn@@ 21355
economist 21352
Jonathan 21352
gres@@ 21349
consumption 21349
agu@@ 21341
keen 21340
control@@ 21339
testimony 21332
plic@@ 21325
extent 21324
Fur@@ 21322
bombs 21314
wider 21314
campus 21313
cope 21313
inev@@ 21311
suffer 21307
relevant 21303
technologies 21290
appro@@ 21289
Bow@@ 21278
serves 21276
gger 21272
dge 21272
Gary 21271
exce@@ 21265
Vic@@ 21265
defending 21262
elderly 21258
efully 21252
Five 21252
engineering 21249
confir@@ 21248
refug@@ 21247
presid@@ 21240
aine 21237
smoke 21236
lity 21231
rist 21231
walls 21226
clean@@ 21225
ordin@@ 21218
striker 21217
encouraged 21209
requ@@ 21207
graduate 21201
NBA 21199
abandoned 21191
organisation 21190
experi@@ 21187
challenging 21184
Ci@@ 21180
Any@@ 21178
celebrity 21176
suspicion 21170
q 21168
controversy 21163
sounds 21153
R-@@ 21150
invasion 21137
inson 21135
icky 21131
udes 21129
T-@@ 21129
representatives 21127
credi@@ 21127
Nig@@ 21127
medicine 21126
cool 21126
Jordan 21114
Represent@@ 21109
Kenya 21106
rape 21106
accor@@ 21104
gathering 21099
virtu@@ 21098
gent 21092
greenhouse 21090
aw 21089
sufficient 21087
poss@@ 21079
yan 21076
1994 21074
hedge 21074
optim@@ 21071
Fla 21069
happ@@ 21066
silver 21060
suppl@@ 21060
Good 21053
pages 21051
mist@@ 21051
bench 21048
Bir@@ 21046
eable 21041
hoo@@ 21040
pot 21039
87 21039
borne 21038
parking 21038
grab@@ 21035
dedicated 21035
Angel@@ 21028
compe@@ 21028
Phoenix 21024
bedroom 21020
rocket 21015
Fire 21013
fed 21011
tradi@@ 21011
treaty 21010
conversation 21009
invent@@ 21001
icken 20989
classes 20987
eted 20985
5,@@ 20976
stuck 20969
Ah@@ 20965
reali@@ 20963
Thailand 20961
deleg@@ 20953
Turkish 20949
haz@@ 20949
icals 20940
ce@@ 20939
Peter@@ 20930
es. 20929
Vietnam 20925
contain 20923
Wind@@ 20921
GA 20921
participants 20920
--and 20916
disclosed 20908
oming 20901
Mic@@ 20899
Islam@@ 20895
Madrid 20895
black@@ 20892
drin@@ 20892
comprehensive 20891
chan@@ 20887
Birmingham 20873
LONDON 20868
profile 20861
bust 20857
Jerusalem 20857
temper@@ 20853
protected 20853
gasoline 20846
Tea@@ 20838
eligible 20835
wise 20834
repeated 20828
Syria 20825
Lehman 20822
defini@@ 20822
addre@@ 20819
rail 20816
extraordinary 20815
recomm@@ 20814
depos@@ 20813
length 20809
kings 20808
Econom@@ 20807
veget@@ 20796
determin@@ 20795
TE@@ 20787
settle 20784
weekly 20784
constitutional 20784
bli@@ 20782
principal 20779
scenes 20776
Shiite 20776
icy 20772
meat 20768
Vir@@ 20761
ained 20760
anded 20760
ballot 20757
Game 20753
inary 20741
asts 20738
Nov@@ 20730
ordinary 20723
King@@ 20721
affili@@ 20721
investigate 20719
conspiracy 20718
acceptable 20715
industries 20713
Education 20706
lec@@ 20705
frequently 20704
campaigns 20697
HO@@ 20696
sof@@ 20684
illa 20673
6,000 20664
conduc@@ 20659
Sam 20653
Moore 20651
Ama@@ 20648
absence 20645
tar@@ 20641
Trade 20639
gradu@@ 20634
entering 20632
Rud@@ 20632
Investig@@ 20629
thetic 20623
steel 20620
unt 20604
ision 20600
consist@@ 20592
Milan 20591
follow@@ 20591
alliance 20590
imagine 20588
resulted 20587
ene 20585
accounting 20581
km 20581
extreme 20579
Conservatives 20577
Ka@@ 20563
puts 20557
aims 20555
pleased 20554
develop@@ 20547
breast 20545
au 20539
defend 20538
prospects 20526
left-@@ 20522
innov@@ 20522
ami 20521
expanded 20512
atur@@ 20511
applied 20499
birthday 20493
bars 20492
Dav@@ 20490
tools 20486
prev@@ 20485
modest 20480
opposite 20479
contribu@@ 20472
engaged 20469
towns 20462
hundred 20461
detention 20456
Dan 20441
Haw@@ 20439
laugh@@ 20439
reporter 20436
week@@ 20433
DA 20432
tz 20430
Nic@@ 20427
channel 20425
Arab@@ 20422
Mrs. 20414
Network 20412
nel 20412
scription 20411
present@@ 20407
Music 20406
episode 20395
dict@@ 20391
AIG 20390
asters 20385
Terry 20383
ague 20381
Mari@@ 20377
generate 20377
referring 20376
aul@@ 20371
Top 20367
tively 20362
Science 20360
featured 20358
Dru@@ 20356
til@@ 20353
virtually 20346
inqu@@ 20346
Second 20344
Toronto 20340
OS 20337
anticipated 20337
Buff@@ 20333
neck 20332
deci@@ 20332
school@@ 20326
Cir@@ 20324
stored 20320
FT@@ 20320
milk 20318
1990 20317
isl@@ 20313
Out@@ 20309
downtown 20305
efficiency 20299
snow@@ 20294
cooperation 20290
ote 20264
Where 20260
Jim@@ 20249
monitoring 20242
Sox 20239
happening 20239
rapidly 20233
ev 20228
atmosphere 20224
fortunately 20217
mov@@ 20215
30,000 20212
implic@@ 20212
Bab@@ 20207
Dur@@ 20206
asks 20198
prec@@ 20191
rarely 20189
spectac@@ 20188
Py@@ 20181
andy 20172
Tennessee 20170
Mov@@ 20163
suspici@@ 20159
planet 20157
Fort 20156
loaded 20150
Barclays 20143
Division 20138
amin 20136
Guardian 20130
guardian.co.uk 20129
lease 20125
compon@@ 20124
dless 20119
centers 20117
kitchen 20112
Phil 20109
cross-@@ 20107
moral 20099
Khan 20098
tensions 20095
smart 20094
relative 20091
ati 20088
respec@@ 20087
ula 20087
theory 20086
obviously 20085
quarterly 20079
mon 20076
medal 20074
Sab@@ 20074
boards 20073
character@@ 20069
North@@ 20067
Dow@@ 20055
tank 20052
rant 20052
radical 20050
sein 20048
Any 20048
playoff 20045
allow@@ 20041
broader 20036
or-@@ 20030
Alexander 20020
Motors 20018
Thir@@ 20014
roof 20002
sens@@ 20002
13.@@ 20001
Commons 19995
hero 19989
ares 19985
athletes 19984
Rodriguez 19982
moderate 19981
Singapore 19980
sta 19973
77 19971
vised 19967
incl@@ 19967
acre 19960
train@@ 19954
Disney 19954
ock 19951
ark 19947
tioning 19940
religion 19939
teaching 19937
Van 19935
PR@@ 19927
providers 19926
bec@@ 19921
shirt 19918
pending 19917
Tories 19916
utes 19916
rif@@ 19911
stud@@ 19899
Indonesia 19899
Super@@ 19896
videos 19886
ves@@ 19885
reasonable 19885
dir@@ 19884
Direc@@ 19882
Edward 19877
Campbell 19871
allied 19865
brothers 19862
disappointed 19862
sustained 19859
Stev@@ 19858
del 19858
John@@ 19857
.N 19856
races 19854
Information 19853
ported 19853
checks 19850
Trav@@ 19847
pel 19846
eup 19841
Arabia 19838
reci@@ 19838
past@@ 19831
staying 19830
add@@ 19820
racing 19819
Ay@@ 19816
blow@@ 19814
VI@@ 19813
assassin@@ 19808
replacement 19806
half@@ 19804
packed 19803
stabili@@ 19802
mers 19800
vers@@ 19796
fires 19793
South@@ 19793
generated 19791
thus 19787
Harris 19785
visits 19780
journalist 19779
GDP 19778
evacu@@ 19777
convinced 19773
ware 19764
lunch 19762
error 19745
Brazilian 19744
basketball 19742
Others 19739
mari@@ 19738
dest 19738
restore 19737
ownership 19736
unprecedented 19735
heal@@ 19732
attribu@@ 19731
anywhere 19729
EC@@ 19721
relea@@ 19710
Indeed 19704
aceu@@ 19699
A-@@ 19685
Sunni 19682
tracks 19677
declar@@ 19674
resolve 19664
BI 19663
crimin@@ 19654
telec@@ 19648
fing@@ 19648
08 19645
N.Y. 19637
Craig 19636
prepar@@ 19634
divided 19626
arrival 19625
nav@@ 19624
arrive 19621
bru@@ 19620
Sin@@ 19595
academic 19591
sives 19588
olog@@ 19588
perform@@ 19586
tennis 19581
gins 19580
Lon@@ 19578
schol@@ 19576
posts 19572
sson 19563
entation 19563
chemical 19557
pupils 19555
earning 19554
shall 19551
sparked 19551
8,000 19551
tack@@ 19551
Ul@@ 19546
Cross 19541
arities 19534
eney 19523
market@@ 19518
covering 19516
kel 19509
hat@@ 19505
rd 19499
operator 19485
charg@@ 19476
horse 19472
math 19471
Vo@@ 19465
Gall@@ 19459
Ly@@ 19457
exhi@@ 19456
ema 19453
eous 19450
Newcastle 19450
harm@@ 19445
politan 19435
mann 19432
boy@@ 19432
landed 19427
SEC 19422
plat@@ 19421
Roo@@ 19416
anders 19415
shor@@ 19410
best-@@ 19408
ve-@@ 19408
Shares 19405
thin@@ 19403
participate 19401
NC@@ 19400
Tiger 19391
aides 19386
uch 19378
hin@@ 19375
performances 19373
eline 19369
1992 19367
Z 19364
Up 19363
Telegraph 19359
threat@@ 19358
ags 19356
asted 19355
touch@@ 19351
feared 19351
veterans 19350
Nik@@ 19349
Gra@@ 19348
sto@@ 19348
sul@@ 19347
R. 19345
Lou@@ 19344
BM@@ 19333
procedures 19330
Chavez 19320
elect 19320
jet 19320
arity 19318
ems 19313
Art 19313
environ@@ 19304
esting 19303
ouring 19303
typical 19301
scar@@ 19298
permission 19297
nights 19290
zz 19285
elds 19284
recogni@@ 19283
Oscar 19271
vit@@ 19267
reveal 19265
Pot@@ 19260
seeded 19259
motion 19253
tone 19252
rebel 19246
fix 19244
champions 19244
quit 19238
Officer 19237
historical 19231
resident 19230
alleg@@ 19226
goal@@ 19224
couples 19217
recor@@ 19212
attract 19211
tile 19210
ious 19210
gallon 19209
6,@@ 19208
fishing 19202
rie 19200
minim@@ 19193
Lebanon 19186
finds 19185
diff@@ 19182
Labor 19182
73 19174
Fern@@ 19174
balls 19171
departure 19168
thirds 19166
inform@@ 19165
honor 19159
Little 19156
wedding 19153
Sup@@ 19150
inches 19148
you@@ 19147
collected 19145
user 19144
rap 19142
halt 19138
slowly 19134
Awards 19133
rail@@ 19133
criticised 19132
Buil@@ 19132
stem@@ 19131
Baltimore 19131
Somalia 19130
volati@@ 19129
ancer 19127
crunch 19127
ranging 19126
academ@@ 19124
MP@@ 19117
ar-@@ 19116
Myanmar 19106
throwing 19103
Islam 19098
tonight 19092
extensive 19092
beer 19085
Marine 19082
al-Qaida 19082
ital 19079
reduc@@ 19077
representative 19077
Feder@@ 19076
mir 19073
weapon 19067
franchise 19067
feed 19065
trigg@@ 19058
Clin@@ 19049
mentioned 19047
category 19043
Mac 19037
definitely 19031
clothing 19025
ado 19025
eder@@ 19022
hill 19018
detail 19013
boom 19013
YouTube 19009
Local 19009
vacc@@ 19007
inging 19006
nesses 19006
seven-@@ 19005
consistent 19005
gift 19004
tech 19003
assaul@@ 19003
photograph@@ 19002
anch@@ 19000
necessarily 18993
Prov@@ 18993
torture 18990
alities 18990
Michelle 18981
stal@@ 18981
vowed 18975
adds 18974
cooper@@ 18971
Yor@@ 18971
hospit@@ 18970
88 18970
fting 18969
apar@@ 18968
Dec@@ 18967
euro@@ 18966
slide 18964
kies 18962
fic 18961
astro@@ 18960
ady 18959
trucks 18955
deri@@ 18943
Lim@@ 18943
offset 18940
sni@@ 18938
detainees 18938
wireless 18926
har 18923
ern@@ 18922
resigned 18920
IA 18920
sta@@ 18917
Gol@@ 18915
Stud@@ 18913
capture 18911
encouraging 18911
E. 18909
aud@@ 18906
dating 18905
woo@@ 18899
expect@@ 18893
strict 18891
isc@@ 18890
referred 18886
wealthy 18884
Mus@@ 18879
progres@@ 18875
dropping 18873
elite 18871
Carlos 18871
Sweden 18862
e-up 18861
Christ@@ 18860
Mohammed 18860
lucky 18859
signal 18858
Having 18843
resi@@ 18843
need@@ 18842
delays 18842
Mitchell 18837
tments 18835
ho 18835
Roman 18832
simul@@ 18831
Darling 18827
sche 18827
Dol@@ 18822
elements 18820
ghted 18811
flew 18797
striking 18795
Ross 18790
restructuring 18790
relationships 18789
GA@@ 18786
Capitol 18781
bom@@ 18779
conviction 18771
appeals 18762
ups 18756
Dod@@ 18755
UC@@ 18754
guide 18754
Mas@@ 18748
bankers 18748
jects 18746
windows 18745
Phillips 18742
74 18742
Wis@@ 18741
mas@@ 18734
yield 18733
2nd 18717
mun@@ 18714
Ven@@ 18712
soft 18710
highligh@@ 18709
insur@@ 18708
uded 18704
Colombia 18703
tis@@ 18699
girlfriend 18699
resear@@ 18697
Bec@@ 18690
Cabinet 18687
swit@@ 18683
reconc@@ 18681
secre@@ 18678
Sea@@ 18676
Liberal 18676
bonus 18666
Venezuela 18655
plate 18654
expanding 18654
athy 18653
flexi@@ 18651
rememb@@ 18645
tening 18641
popularity 18641
rela@@ 18640
overhaul 18636
cut@@ 18635
Golden 18632
mood 18631
assists 18624
listen 18623
opponent 18622
suppor@@ 18618
Sco@@ 18617
steady 18614
NYSE 18614
anni@@ 18613
1991 18608
teenage 18606
Kent 18605
ga 18601
CE@@ 18599
temperatures 18594
advisers 18593
homeowners 18592
RA@@ 18588
Jr 18587
double-@@ 18584
raid 18584
dea@@ 18580
Joh@@ 18568
By@@ 18565
volunt@@ 18556
degrees 18556
Iraq@@ 18556
Pur@@ 18548
amaz@@ 18547
een 18543
Speaking 18540
enrich@@ 18540
Ukraine 18540
democratic 18537
Utah 18529
mont 18527
Bry@@ 18524
onships 18524
sweet 18521
rolling 18517
Finance 18515
Abbas 18513
Cham@@ 18507
Jon 18506
iller 18502
Technology 18501
el-@@ 18500
prison@@ 18498
praised 18496
Welsh 18496
otic 18492
Cru@@ 18487
76 18483
fra@@ 18481
rett 18479
Metro@@ 18479
Rose 18474
hate 18474
calm 18473
doubled 18471
dang@@ 18463
Reg@@ 18463
conn@@ 18462
barg@@ 18460
Afric@@ 18459
minist@@ 18458
buried 18454
inher@@ 18454
trium@@ 18448
foundation 18446
Major 18446
Brothers 18436
footage 18435
favour 18434
Roberts 18422
Ed 18421
leng@@ 18413
advised 18411
tradition 18410
Economic 18410
involve 18406
featuring 18399
Euro@@ 18398
da@@ 18396
Graham 18395
Hai@@ 18385
nationally 18379
handful 18379
privacy 18370
transportation 18365
noticed 18363
dio 18359
Bud@@ 18356
disputed 18350
traff@@ 18350
His@@ 18348
acing 18345
attractive 18345
rid@@ 18338
unknown 18338
close@@ 18333
sponsored 18331
Sean 18330
deployed 18327
wich 18326
Writ@@ 18325
gie 18319
plum@@ 18314
Bureau 18313
household 18310
tha 18310
inspir@@ 18310
fourth-@@ 18307
spirit 18306
esti@@ 18304
resulting 18303
prohi@@ 18299
aired 18298
estyle 18296
lar@@ 18295
premium 18295
ference 18289
ent-@@ 18286
ray 18286
5m 18282
Darfur 18270
ova 18264
carefully 18264
verdict 18254
Leg@@ 18251
repair 18248
14.@@ 18245
respectively 18243
approached 18241
Ful@@ 18240
ener@@ 18240
enormous 18237
desperate 18234
lion 18228
legs 18226
alize 18225
continu@@ 18224
DS 18222
Schwar@@ 18222
forget 18214
tex@@ 18209
theme 18205
bon 18201
Tibet 18196
eva 18192
tory 18192
borough 18185
brut@@ 18181
complicated 18178
guidelines 18177
worries 18174
coup 18164
lier 18150
pursue 18145
BO@@ 18142
somewhat 18142
universities 18141
statistics 18137
Ear@@ 18136
discovery 18135
everybody 18126
ranks 18125
Bernanke 18124
confl@@ 18123
switch 18121
landing 18119
Que@@ 18117
grant 18117
cle@@ 18117
evalu@@ 18117
conveni@@ 18114
ela 18110
pret@@ 18109
photographs 18108
volunteers 18105
tac@@ 18102
preferred 18085
ambassador 18085
dict 18085
dale 18081
05 18077
soc@@ 18077
merger 18076
put@@ 18073
compromise 18071
atically 18066
agging 18065
prop@@ 18061
Nichol@@ 18060
15.@@ 18059
surg@@ 18058
ao 18057
s.com 18055
command 18047
ffed 18043
PS 18043
map 18043
predec@@ 18041
shoot 18041
invest@@ 18039
blocks 18035
39@@ 18033
get@@ 18033
Cat@@ 18032
vin 18028
merely 18026
Guantanamo 18021
liver 18016
Given 18007
roots 18003
diagnosed 18003
Barry 18001
ple@@ 17998
organized 17996
augh@@ 17994
borrowers 17989
camps 17984
journal 17984
sett@@ 17981
teenagers 17981
ologists 17980
pack 17979
nu@@ 17978
Hughes 17978
dic 17976
Cul@@ 17973
14-@@ 17968
ancient 17965
Chancellor 17959
regarded 17950
Ari@@ 17950
government-@@ 17949
diagno@@ 17946
mix@@ 17944
bow 17941
kilomet@@ 17932
affordable 17931
cricket 17930
ingu@@ 17926
Stri@@ 17925
creative 17923
Rem@@ 17910
guess 17909
Bridge 17909
essor 17907
Commerce 17907
asting 17903
uncertainty 17900
á@@ 17892
bone 17892
Mot@@ 17892
forecasts 17888
Good@@ 17883
pump@@ 17881
politically 17871
momentum 17870
concept 17869
phase 17866
..@@ 17863
professionals 17859
dens 17854
Philipp@@ 17851
Bhutto 17848
iti 17834
lig@@ 17834
kno@@ 17832
irates 17832
Greek 17829
anna 17828
surprising 17817
subur@@ 17807
1960s 17806
eived 17805
13-@@ 17804
y. 17803
Rome 17800
excep@@ 17799
keeps 17796
El 17796
edly 17795
shman 17794
Investors 17794
authorized 17792
powered 17792
borrowing 17792
09 17788
fate 17787
Assembly 17785
tre 17780
dressed 17778
awn 17774
recognized 17773
ped@@ 17772
function 17767
concrete 17764
sustainable 17761
fundrai@@ 17760
Kentucky 17754
spot@@ 17747
tea@@ 17746
machines 17745
searching 17745
curren@@ 17744
choices 17743
gar 17740
Stanford 17739
label 17735
tribu@@ 17734
Clark 17730
wage 17730
dealers 17729
Emer@@ 17725
P. 17724
Festival 17721
lab 17719
enny 17719
Sports 17718
Nelson 17716
alization 17714
consu@@ 17712
deteri@@ 17710
Tibet@@ 17706
routine 17703
utionary 17702
exit 17700
tent 17692
recy@@ 17691
orious 17690
endment 17688
insurgency 17685
AR 17685
bub@@ 17679
slipped 17677
great@@ 17674
humans 17671
Has@@ 17665
supports 17664
iliation 17661
shadow 17659
nic@@ 17654
maintained 17652
chur@@ 17649
networking 17649
monitor 17647
Love 17647
Sc@@ 17643
dead@@ 17641
governing 17641
funeral 17640
Saf@@ 17640
Dri@@ 17639
defended 17637
tin 17631
atis@@ 17631
files 17627
share@@ 17626
Tu@@ 17626
specifically 17624
EN@@ 17620
Family 17610
Tru@@ 17609
cks 17605
TO 17605
belong@@ 17605
NH@@ 17596
agg@@ 17589
expecting 17587
improvements 17583
Mah@@ 17579
custom@@ 17575
writes 17569
visible 17566
trips 17565
TON 17561
kil@@ 17559
spots 17557
Oklahoma 17557
investigations 17554
trains 17553
genu@@ 17547
ranking 17537
traveling 17537
quake 17534
TS@@ 17532
Nevada 17526
Liby@@ 17522
Without 17519
@ 17518
scrip@@ 17514
worn 17511
waves 17506
conventional 17503
fe 17502
diabetes 17500
useful 17498
inations 17489
carrier 17484
depend@@ 17483
Des@@ 17481
competing 17477
Lt@@ 17476
bomber 17475
Independent 17475
Boeing 17473
cham@@ 17471
contributions 17467
n-@@ 17465
1993 17460
gency 17455
licen@@ 17454
favourite 17453
oral 17450
totally 17442
Elizabeth 17439
babies 17438
roles 17437
tment 17435
referendum 17434
Connecticut 17432
Lad@@ 17431
shuttle 17431
Prosecutors 17426
,00@@ 17423
drun@@ 17423
Consumer 17423
ek@@ 17421
depression 17419
erup@@ 17417
celebrate 17411
Shanghai 17408
lion-@@ 17403
PC 17398
FDA 17388
enger 17384
outing 17379
49@@ 17378
Barcelona 17376
transparen@@ 17369
distur@@ 17368
Hist@@ 17367
extension 17366
Antonio 17360
residential 17357
constitution 17357
incredi@@ 17357
storage 17356
sidents 17356
crackdown 17355
escaped 17355
issu@@ 17355
tism 17351
insists 17343
plea 17339
cheaper 17337
outbreak 17330
circul@@ 17323
adver@@ 17322
spi@@ 17321
acres 17319
attered 17317
home@@ 17310
reserve 17308
Evans 17303
ext 17298
Station 17296
edges 17295
eth 17295
hero@@ 17294
assembly 17294
attending 17293
by-@@ 17287
difficulties 17284
Ts@@ 17284
Bell 17282
wrong@@ 17279
crews 17279
pirates 17262
earth 17261
Wood@@ 17257
smoo@@ 17251
free@@ 17244
arguing 17241
rich@@ 17239
Safety 17235
1.2 17235
dated 17234
regre@@ 17231
bet 17229
gli@@ 17227
Which 17226
Yorkshire 17226
politician 17225
altern@@ 17223
preliminary 17218
-off 17216
disappeared 17214
turer 17214
ool 17212
wai@@ 17204
escal@@ 17203
infection 17202
kh 17194
tap@@ 17191
ink@@ 17186
urging 17177
Sher@@ 17176
Yemen 17176
transition 17174
Football 17173
aria 17171
Bea@@ 17171
pical 17170
recording 17168
Avi@@ 17167
Nation@@ 17166
alo@@ 17166
fas@@ 17166
6-3 17164
cover@@ 17161
Dom@@ 17161
tea 17161
Copenhagen 17159
guidance 17158
repe@@ 17157
ja 17151
holid@@ 17145
Oak@@ 17141
wore 17140
Power 17137
MS@@ 17130
beauty 17129
hang 17125
adequate 17117
Arm@@ 17112
approve 17109
Fab@@ 17108
Hawai@@ 17108
Cardiff 17107
rated 17107
skir@@ 17107
PRNewswire-USNewswire 17107
Gonz@@ 17105
turmoil 17105
ando 17102
fab@@ 17101
defender 17094
AF@@ 17092
observ@@ 17091
anyway 17091
pregn@@ 17077
chann@@ 17077
childhood 17075
attracted 17073
theater 17071
check@@ 17065
6-4 17062
lists 17061
surveillance 17058
A.@@ 17056
nerv@@ 17053
uranium 17051
update 17045
addic@@ 17043
Es@@ 17038
license 17037
barrels 17034
sheet 17033
advertis@@ 17028
ambitious 17026
reference 17023
longtime 17023
surpri@@ 17022
Cook 17018
success@@ 17014
accurate 17012
Bob@@ 17007
daughters 17005
yellow 17003
Wall@@ 17003
rugby 17001
im 17000
manner 16997
hosti@@ 16994
retailer 16993
survivors 16989
Corn@@ 16989
35@@ 16988
ager 16987
aide 16986
Organization 16985
Bruce 16983
wonderful 16980
2-1 16980
volunte@@ 16978
exclusive 16973
upcoming 16972
offense 16971
fers 16969
attempting 16968
iP@@ 16967
shouldn 16965
rain@@ 16961
shoes 16961
Poor 16960
enko 16960
oxide 16955
Ray 16953
Until 16947
78 16947
thous@@ 16941
briefly 16938
Brow@@ 16932
Iv@@ 16932
Hop@@ 16931
short-term 16930
Huckabee 16929
plo@@ 16927
hoods 16918
es--@@ 16917
sue 16916
fat@@ 16915
essentially 16913
near@@ 16913
rid 16912
rank 16908
lady 16906
18-@@ 16901
horri@@ 16899
HIV 16895
sioner 16892
apologi@@ 16890
Lakers 16888
Revol@@ 16888
operators 16888
narrow@@ 16886
knowing 16886
deny 16881
age-@@ 16878
comfort 16877
lionaire 16876
Hear@@ 16872
financi@@ 16869
killer 16867
carries 16862
tall 16860
Mail 16855
1st 16855
documentary 16853
exist 16851
Georgi@@ 16850
commit 16850
ced 16849
remarkable 16845
7,@@ 16844
Guard 16836
Neil 16830
free-@@ 16825
17.@@ 16819
Tigers 16814
appearances 16812
casualties 16810
Cav@@ 16809
experim@@ 16807
Fif@@ 16803
ament 16802
communication 16802
succeed 16802
7,000 16800
burst 16796
operates 16787
Yu@@ 16780
Mets 16777
wic@@ 16769
dialogue 16766
emen 16765
Wayne 16764
beli@@ 16762
reless 16760
Brooklyn 16759
decent 16754
appointing 16750
alle@@ 16747
upper 16747
aug@@ 16746
lan 16738
tless 16737
firing 16737
mass@@ 16731
wars 16730
fusion 16723
hosts 16722
10th 16720
outr@@ 16715
Eli@@ 16713
toler@@ 16711
recognition 16705
bases 16696
high-profile 16696
Camp@@ 16694
ction 16691
stock@@ 16688
kn@@ 16687
arrests 16685
asy 16685
icious 16683
flag 16680
mal 16679
xed 16673
recommendations 16672
ile@@ 16665
ateral 16656
proj@@ 16655
grow@@ 16650
Czech 16650
scienti@@ 16649
ison 16647
Aber@@ 16645
oratory 16645
rice 16642
Bloomberg 16642
ok 16641
Live 16638
r. 16634
Heal@@ 16629
Harvard 16626
par 16623
arguments 16623
Kabul 16616
racial 16612
Sachs 16610
contains 16609
opens 16608
staff@@ 16603
Co. 16600
Ds 16598
tist 16596
24-@@ 16593
cott 16593
finances 16592
Alex@@ 16590
acco 16590
forest 16589
targeting 16587
throw@@ 16584
16.@@ 16578
resume 16577
enemy 16575
describe 16572
treat@@ 16572
Ir@@ 16566
riot 16566
Beck@@ 16565
ploy 16563
Russell 16562
alert 16559
Under@@ 16557
Award 16556
Merrill 16555
flood 16554
fashi@@ 16551
Community 16547
ota 16547
79 16545
25,000 16544
anticip@@ 16540
um-@@ 16535
regard 16532
contr@@ 16531
juana 16531
Congressional 16526
sand@@ 16524
docum@@ 16524
membership 16523
Ret@@ 16520
iced 16517
nutri@@ 16516
copy 16512
itz 16507
knocked 16505
zero 16504
onia 16502
smugg@@ 16498
nin@@ 16497
20th 16494
haw@@ 16492
branch 16491
methods 16488
valuable 16488
trapped 16487
solve 16487
will@@ 16485
humanitarian 16484
Scienti@@ 16482
.... 16481
Nadal 16481
WH@@ 16480
missiles 16475
Care 16475
Lor@@ 16473
liance 16471
Hud@@ 16470
IM@@ 16469
Program 16469
classi@@ 16468
welfare 16467
Mass 16467
itt@@ 16461
brilli@@ 16460
operated 16459
middle-@@ 16454
homer 16450
Egyp@@ 16450
organiz@@ 16449
uments 16444
Kh@@ 16442
taste 16441
fighter 16440
swept 16439
enable 16437
divorce 16434
specul@@ 16433
ultim@@ 16430
sic 16425
ame@@ 16424
mol@@ 16422
App@@ 16422
narrow 16421
gment 16420
acqui@@ 16419
enses 16413
arre@@ 16408
taught 16405
ila 16403
surely 16402
invested 16399
squee@@ 16397
wick 16395
kicked 16394
Matthew 16391
iner 16391
aband@@ 16385
Chin@@ 16385
qualify 16383
legislative 16381
phen@@ 16378
renewed 16376
bath@@ 16374
sioned 16372
installed 16363
ghtly 16362
aboard 16362
tourism 16360
peaceful 16360
formally 16359
folk 16359
Priv@@ 16358
OK 16355
champi@@ 16355
oric 16352
judgment 16352
bombings 16351
shers 16351
correspondent 16349
donations 16339
IN 16338
neighbors 16334
burning 16329
hybri@@ 16323
Netherlands 16319
82 16316
Oh 16315
Tampa 16313
equally 16310
advocates 16307
azz@@ 16307
entreprene@@ 16305
pling 16302
worl@@ 16302
abad 16301
sers 16301
NP 16300
Mahmoud 16297
akers 16295
stol 16286
decreas@@ 16285
requests 16276
ssi@@ 16276
sim@@ 16276
Duke 16275
Pas@@ 16274
shoc@@ 16272
submitted 16271
lessons 16268
cocaine 16267
soverei@@ 16267
climbed 16266
LA@@ 16266
attle 16265
iny 16264
.C. 16263
Project 16259
conservatives 16258
Reven@@ 16258
Commis@@ 16253
bike 16251
introduce 16246
fax 16244
Alliance 16240
nobody 16239
fan@@ 16239
iron 16231
explan@@ 16228
studied 16227
Dave 16226
Orange 16226
Giuliani 16226
Ry@@ 16223
aus@@ 16221
favor@@ 16219
gang@@ 16218
orchestr@@ 16215
83 16214
categ@@ 16211
oods 16209
Wy@@ 16208
81 16206
Fun@@ 16203
recover@@ 16202
appearing 16201
screening 16199
mistakes 16199
smar@@ 16196
84 16194
formation 16192
color 16192
dan 16190
destruction 16190
86 16189
taxpayer 16186
ren 16180
helicopters 16180
200,000 16180
attend@@ 16179
Officers 16175
shir@@ 16174
ura 16171
clock 16166
mothers 16164
brea@@ 16163
timing 16162
hadn 16162
Kosovo 16162
commissioner 16161
disclo@@ 16159
Murphy 16156
contribution 16154
Medvedev 16152
optimistic 16151
covers 16150
withdrawal 16148
deem@@ 16147
zza 16146
lus@@ 16140
flooding 16134
diseases 16132
indicate 16130
hidden 16127
jew@@ 16125
airports 16123
eral 16118
AIDS 16116
survival 16114
heritage 16112
diet 16102
strong@@ 16100
azz 16099
rush 16095
exer@@ 16094
box@@ 16092
agement 16088
recogn@@ 16086
TO@@ 16085
install@@ 16085
electoral 16085
Villa 16080
stration 16074
pedi@@ 16072
answers 16071
Systems 16070
overcome 16070
accusations 16070
tactics 16062
Wo@@ 16061
manag@@ 16058
enced 16050
900 16049
answered 16046
households 16045
lish 16045
500,000 16042
interim 16039
Tim@@ 16036
riding 16036
rapid 16030
unlike 16026
jected 16024
Jack@@ 16020
ority 16015
chiat@@ 16014
reverse 16013
firefighters 16013
utions 16011
Def@@ 16006
tenham 16002
bird 16000
purchased 15997
consultant 15994
mosqu@@ 15991
neg@@ 15991
camp@@ 15989
tourist 15989
Oxford 15986
Alabama 15983
soil 15980
aff 15971
temp@@ 15968
Sav@@ 15966
tool 15964
cigare@@ 15962
Senior 15957
Affairs 15954
H. 15950
U.@@ 15949
diplomats 15946
resignation 15941
negotiate 15937
persu@@ 15936
RI@@ 15935
Gab@@ 15934
Netanyahu 15934
Scho@@ 15933
maintenance 15933
attorneys 15931
Bay@@ 15925
stance 15922
occupied 15922
initiatives 15921
Lynch 15917
Nancy 15911
70@@ 15910
sibilities 15908
Oregon 15901
aki 15897
resistance 15896
innocent 15894
requested 15893
warnings 15889
Motor 15889
Civil 15886
seem@@ 15884
disabled 15883
bass@@ 15882
challenged 15881
consolid@@ 15881
fatal 15874
ocol@@ 15874
strain 15871
clashes 15871
suff@@ 15871
house@@ 15859
appealed 15857
sporting 15854
cea@@ 15851
Wim@@ 15850
3.5 15849
grapher 15847
vil@@ 15846
sad 15845
quanti@@ 15839
forming 15836
assist 15836
alo 15836
refin@@ 15835
itted 15830
thin 15815
Ori@@ 15815
dramatically 15813
CC@@ 15811
decrease 15810
ael 15809
questioning 15809
80@@ 15805
probe 15802
.org 15802
orian 15801
matic 15798
Fort@@ 15796
register 15791
awareness 15791
writ@@ 15786
protecting 15785
dying 15784
liers 15778
rez 15778
parks 15772
odds 15772
slaugh@@ 15771
killings 15769
provision 15767
Net@@ 15766
Speaker 15765
plain@@ 15760
benchmark 15757
dividend 15755
experiences 15755
ppi 15755
interven@@ 15755
Lions 15749
obtain 15747
struction 15746
ele 15740
schem@@ 15739
120 15739
Americ@@ 15733
16-@@ 15731
Pope 15721
Brun@@ 15713
intim@@ 15713
Abdullah 15712
Up@@ 15711
ld@@ 15709
reha@@ 15707
spotted 15707
hosted 15704
eight-@@ 15699
sugar 15698
Budget 15694
Wea@@ 15693
shar@@ 15693
brid@@ 15692
Malay@@ 15691
consensus 15690
freeze 15690
Gold 15688
triggered 15684
second@@ 15683
2-0 15679
trail 15672
slump 15667
Pelosi 15666
pollution 15664
Cla@@ 15663
Fair@@ 15662
e-m@@ 15662
pick@@ 15661
defendants 15658
engage 15651
larg@@ 15651
sorts 15648
pray@@ 15647
fruit 15646
ption 15646
Rad@@ 15645
Ferr@@ 15645
Defence 15645
containing 15645
nar@@ 15644
bitter 15643
defined 15641
inely 15641
ora 15640
Marg@@ 15637
Bus@@ 15632
knife 15632
celebrated 15631
projected 15631
icon 15631
C.@@ 15628
boxes 15623
concl@@ 15620
purchases 15618
proven 15617
habit@@ 15616
swing 15612
1989 15610
K. 15609
Greg@@ 15608
succe@@ 15589
Nigeria 15586
angered 15580
Bran@@ 15577
1-0 15576
tape 15575
1.3 15574
pulling 15569
developments 15559
intellec@@ 15557
inated 15555
shocked 15554
Colom@@ 15553
rushed 15552
kid@@ 15551
guest 15550
coni 15548
addressed 15546
lender 15545
intent 15544
dios 15542
MO@@ 15536
recognize 15531
ockey 15526
Anti@@ 15526
oldest 15524
interviewed 15522
theft 15519
cats 15518
junior 15512
ud 15508
atic@@ 15508
Griff@@ 15504
Verizon 15501
Lincoln 15501
ele@@ 15500
ired 15494
Insurance 15493
Free 15492
graph 15488
hunt 15488
3-year-old 15488
rh@@ 15485
Kate 15484
cauc@@ 15478
Lady 15477
Sud@@ 15475
Freddie 15473
utili@@ 15469
zi@@ 15468
Masters 15461
accompanied 15461
realize 15460
Wel@@ 15459
Lar@@ 15458
prefer 15454
Louisiana 15451
inch 15451
poore@@ 15450
contacted 15449
brow@@ 15449
tension 15449
techniques 15447
communic@@ 15446
etown 15437
Larry 15431
Lie@@ 15430
observers 15426
gle 15425
applic@@ 15425
constant 15425
total@@ 15419
impose 15419
semi@@ 15415
autum@@ 15412
astronau@@ 15411
robbery 15410
trau@@ 15409
tougher 15407
rounds 15401
ods 15400
Len@@ 15397
sity 15396
memor@@ 15396
bran@@ 15395
export 15394
genetic 15392
petition 15391
ankle 15391
suspension 15390
Sk@@ 15387
embassy 15387
sophistic@@ 15386
Wells 15386
17-@@ 15381
Lin@@ 15380
withdraw 15376
Rober@@ 15375
transferred 15372
watchdog 15372
innovative 15370
comeback 15367
coinc@@ 15365
Bron@@ 15364
rying 15364
Ron 15363
tail 15360
bara 15350
entitled 15348
Orlando 15340
philos@@ 15339
discus@@ 15336
atch 15333
mly 15332
phy 15329
Back 15324
Cli@@ 15321
contribute 15321
raw 15321
AD@@ 15321
Charlie 15317
IMF 15313
Gri@@ 15310
retre@@ 15309
utility 15308
Caribbean 15304
surrounded 15300
Chase 15298
Nearly 15297
disorder 15292
inner 15292
nt 15292
Petro@@ 15291
ween 15286
com 15285
ctic 15284
jack@@ 15283
provincial 15269
ago@@ 15269
Leader 15267
Ark@@ 15265
Jews 15264
default 15262
believ@@ 15258
exciting 15258
admit 15256
Icel@@ 15255
Mart@@ 15255
occu@@ 15255
Islamist 15252
landscape 15251
involves 15247
honest 15247
solic@@ 15246
Acc@@ 15246
Simpson 15245
Mem@@ 15239
wis@@ 15234
Gold@@ 15233
legacy 15232
Maliki 15232
architec@@ 15225
Susan 15224
film@@ 15220
boyfriend 15219
Ocean 15219
comparison 15213
Victoria 15213
condemned 15209
closure 15209
She@@ 15208
ignored 15208
persuade 15205
liked 15200
copies 15200
dian 15199
contractors 15196
LAN@@ 15195
reliable 15186
exemp@@ 15185
Nicolas 15183
nominated 15181
pipeline 15177
condi@@ 15174
Syd@@ 15173
Broadway 15171
attacking 15170
89 15168
scrutiny 15165
susp@@ 15164
travelling 15163
stitutes 15161
Clem@@ 15155
boats 15155
guit@@ 15153
traders 15152
sider 15146
Click 15145
McCar@@ 15140
datab@@ 15137
intervention 15133
Sheriff 15131
Meh@@ 15119
Report 15118
repeat 15118
Thom@@ 15117
souri 15113
rul@@ 15110
pledge 15108
nonprofit 15108
Sales 15108
Brussels 15105
itter 15102
chest 15101
replac@@ 15099
fai@@ 15095
ity-@@ 15092
subscri@@ 15091
HB@@ 15090
sudden 15090
Bou@@ 15088
ann 15086
procedure 15083
Cardin@@ 15082
afraid 15082
Arts 15080
proceedings 15078
Leic@@ 15078
Sus@@ 15077
yang 15076
Whether 15075
aggres@@ 15072
stron@@ 15071
ourselves 15069
villages 15067
singing 15063
therap@@ 15062
edon 15061
ST 15057
Thous@@ 15056
gal@@ 15052
sissi@@ 15052
assing 15051
ulous 15047
Protection 15041
Sub@@ 15041
transaction 15039
cool@@ 15038
ins@@ 15038
developers 15036
annually 15034
negotiating 15034
ador 15033
Later 15033
attitude 15032
promoting 15030
Philip 15028
porters 15026
Gh@@ 15025
CA 15024
neu@@ 15019
encies 15017
focusing 15015
retain 15013
----@@ 15012
Market 15011
entally 15011
minster 15011
8,@@ 15008
thoughts 15006
40,000 15005
organi@@ 14994
vity 14991
fal@@ 14970
accep@@ 14961
exper@@ 14960
guar@@ 14946
porary 14931
ʼ@@ 14929
settl@@ 14927
mary 14834
Gor@@ 14801
critic@@ 14800
CN@@ 14722
rities 14715
deploy@@ 14699
sour@@ 14696
Davi@@ 14687
casu@@ 14684
edged 14634
vill@@ 14630
materi@@ 14607
maj@@ 14601
Af@@ 14600
ural 14588
obs 14586
vide@@ 14549
Cab@@ 14546
nia 14512
ault 14465
simil@@ 14445
tices 14445
noti@@ 14443
puty 14437
choo@@ 14418
atures 14405
Org@@ 14398
aire 14386
activi@@ 14353
sanc@@ 14344
erous 14296
yle 14284
thre@@ 14253
atively 14253
stimul@@ 14249
independ@@ 14205
Il@@ 14205
telev@@ 14203
extrem@@ 14199
Stre@@ 14198
ni 14195
may@@ 14178
enture 14173
eph@@ 14172
versity 14172
ven 14156
ford@@ 14134
Lab@@ 14131
archit@@ 14130
lam 14116
ause 14112
sportation 14090
ross 14080
dreds 14069
eni@@ 14066
ky@@ 14058
fem@@ 14015
idence 14008
grap@@ 13974
event@@ 13974
short-@@ 13972
prosp@@ 13939
erial 13894
differ@@ 13891
subsi@@ 13889
ention 13872
loom@@ 13838
tainment 13836
Lyn@@ 13775
wel@@ 13764
Soci@@ 13758
Broad@@ 13755
ticul@@ 13755
exclu@@ 13751
craft 13750
difficul@@ 13743
ansas 13737
ee@@ 13702
respond@@ 13698
gent@@ 13693
enty 13679
complic@@ 13651
emy 13586
num@@ 13583
aller 13571
olo@@ 13559
extre@@ 13549
resu@@ 13548
Sci@@ 13539
nec@@ 13538
uk 13513
bad@@ 13508
natur@@ 13494
condem@@ 13490
divid@@ 13484
venue 13476
iss 13474
Willi@@ 13469
depart@@ 13447
power@@ 13436
GE@@ 13417
turing 13410
borrow@@ 13325
initi@@ 13319
wav@@ 13289
Techn@@ 13212
Steph@@ 13168
regar@@ 13134
Goo@@ 13114
ploy@@ 13106
tiv@@ 13105
journ@@ 13101
Iran@@ 13095
compu@@ 13094
peace@@ 13085
cam@@ 13053
gran@@ 12968
versi@@ 12925
ument 12922
lef@@ 12915
icit 12894
avail@@ 12883
ership 12849
Cour@@ 12836
requi@@ 12821
Jon@@ 12817
forec@@ 12810
eleg@@ 12808
ason 12803
bal 12770
telligence 12769
mach@@ 12748
oria 12745
GM@@ 12737
guil@@ 12735
Att@@ 12727
fair@@ 12702
questi@@ 12683
consol@@ 12623
Israel@@ 12613
Sti@@ 12600
Off@@ 12576
heav@@ 12566
erve 12549
human@@ 12540
sibility 12537
emis@@ 12536
Hav@@ 12533
sely 12505
desper@@ 12504
accur@@ 12493
eci@@ 12481
stric@@ 12477
uncertain@@ 12468
keep@@ 12437
vez 12416
Osc@@ 12395
Inde@@ 12392
hou@@ 12385
dad 12370
chil@@ 12363
With@@ 12361
tellig@@ 12324
year-old 12300
Fam@@ 12299
green@@ 12295
pha@@ 12273
sci@@ 12272
ologies 12225
elines 12218
eria 12200
techni@@ 12189
itch@@ 12167
convic@@ 12161
ticle 12158
Resear@@ 12150
phi@@ 12127
primar@@ 12098
friend@@ 12097
fif@@ 12093
abled 12055
inde@@ 12051
spor@@ 11998
# 11997
opini@@ 11996
conven@@ 11976
uries 11966
immigr@@ 11933
pati@@ 11910
Ox@@ 11908
zens 11899
esterday 11897
pers@@ 11893
í@@ 11872
mess@@ 11854
m. 11852
view@@ 11843
foc@@ 11841
Jor@@ 11830
idents 11813
corrup@@ 11807
histor@@ 11791
eil 11768
convers@@ 11762
Leban@@ 11751
Colum@@ 11736
substanti@@ 11725
icked 11721
onable 11701
edom 11690
defin@@ 11681
ace@@ 11660
desi@@ 11654
fru@@ 11648
NY@@ 11647
acher 11634
Nav@@ 11597
ident 11584
spon@@ 11579
tedly 11579
langu@@ 11575
dependent 11571
bail@@ 11568
strai@@ 11546
Fren@@ 11531
eriff 11520
lear@@ 11512
mort@@ 11501
origin@@ 11465
volum@@ 11434
keting 11412
alia 11406
How@@ 11402
lions 11399
purcha@@ 11397
Abdul@@ 11389
provin@@ 11387
Dani@@ 11384
resist@@ 11381
industri@@ 11359
uro 11348
ept 11348
Gaz@@ 11347
appoin@@ 11339
comple@@ 11312
critici@@ 11287
Kel@@ 11260
| 11244
Kore@@ 11236
Carol@@ 11225
sust@@ 11218
tough@@ 11212
enjo@@ 11209
rom 11173
anish 11150
anonym@@ 11129
Ass@@ 11126
Prof@@ 11119
posite 11098
legisl@@ 11097
ilton 11076
Michel@@ 11057
survi@@ 11051
ape 11042
ucks 11040
Argent@@ 11024
defend@@ 11016
manu@@ 10996
Ok@@ 10985
tionary 10977
chester 10973
occur@@ 10946
ongs 10941
pho@@ 10936
advant@@ 10934
aper 10930
absol@@ 10903
mod@@ 10885
Democr@@ 10859
Fir@@ 10856
anese 10835
ancellor 10831
NA 10827
kshire 10825
lion@@ 10799
Moham@@ 10752
vals 10716
gry 10716
kne@@ 10699
itely 10699
epis@@ 10684
six@@ 10681
Oc@@ 10640
Mass@@ 10639
Bru@@ 10639
icide 10618
territ@@ 10600
> 10588
Europe@@ 10580
GO@@ 10573
effec@@ 10571
ility 10569
Syri@@ 10540
ember 10534
enjoy@@ 10532
spokes@@ 10508
figu@@ 10508
nings 10502
evel@@ 10501
awar@@ 10480
pea@@ 10455
strugg@@ 10438
ece 10434
ign 10433
poli@@ 10428
agon 10422
comfor@@ 10418
milit@@ 10413
quick@@ 10411
alter@@ 10355
assic 10318
.co.uk 10311
compens@@ 10298
agh@@ 10272
Mali@@ 10257
haul 10221
Pho@@ 10180
fiel@@ 10145
self 10105
coff@@ 10100
NAS@@ 10062
199@@ 10053
Venezu@@ 10051
shoul@@ 10030
Roy@@ 10029
mption 10006
Tai@@ 10004
Champi@@ 10003
Sev@@ 9999
paren@@ 9995
health@@ 9951
favour@@ 9921
approv@@ 9921
» 9921
Nas@@ 9892
sibly 9890
appropri@@ 9890
accept@@ 9887
aul 9880
tric 9879
consid@@ 9858
candid@@ 9842
anies 9839
consum@@ 9824
ym@@ 9795
atever 9792
poll@@ 9777
defe@@ 9719
cot@@ 9705
Citi@@ 9683
Corpor@@ 9671
jour@@ 9667
improv@@ 9660
well@@ 9659
there@@ 9638
Hot@@ 9634
actu@@ 9620
Chri@@ 9605
foun@@ 9601
lit 9582
ques 9581
ainst 9573
encour@@ 9568
lem 9562
sensi@@ 9508
rat@@ 9507
grou@@ 9481
enge 9463
reven@@ 9457
reve@@ 9416
prep@@ 9392
publ@@ 9386
cerem@@ 9328
ssed 9314
thu@@ 9313
minent 9313
sig@@ 9287
ied 9263
kni@@ 9252
ense 9242
Kenne@@ 9240
You@@ 9228
è@@ 9222
represent@@ 9205
tally 9167
cip@@ 9167
practi@@ 9148
Conserv@@ 9145
alco@@ 9140
earth@@ 9133
consequ@@ 9110
kill@@ 9095
tee 9092
scand@@ 9086
vot@@ 9073
mitted 9053
Minn@@ 9051
bankrup@@ 9048
ayne 9032
divor@@ 9010
pover@@ 8978
sport@@ 8966
dow 8958
recommend@@ 8956
magaz@@ 8944
child@@ 8938
Califor@@ 8912
democr@@ 8912
Chry@@ 8895
authori@@ 8891
aska 8881
Cen@@ 8865
ergy 8864
valu@@ 8843
tled 8815
schedul@@ 8814
urs@@ 8813
ister 8807
stitu@@ 8801
ried 8791
ults 8778
gress 8760
ounts 8741
challeng@@ 8730
Associ@@ 8703
ove 8702
Stan@@ 8692
itage 8684
Itali@@ 8668
sev@@ 8663
stered 8663
eball 8649
achers 8630
fig@@ 8629
DP 8622
Jour@@ 8611
fall@@ 8579
assist@@ 8575
PI 8568
surance 8562
discover@@ 8537
Hamp@@ 8525
thir@@ 8519
Cathol@@ 8501
ferred 8499
inno@@ 8468
tour@@ 8441
deter@@ 8436
Tex@@ 8407
mortg@@ 8400
gible 8363
icity 8360
reau 8359
insurg@@ 8350
partner@@ 8342
Afgh@@ 8342
ʼ 8340
aten 8331
istan 8321
½ 8312
reveal@@ 8310
albu@@ 8299
signific@@ 8299
gues 8291
preced@@ 8288
eas@@ 8268
behavi@@ 8260
ght-@@ 8256
hn@@ 8247
derson 8246
indu@@ 8201
Indone@@ 8192
adverti@@ 8173
xim@@ 8157
echn@@ 8152
seas 8130
gene@@ 8108
angers 8089
Pel@@ 8065
Â 8063
ricul@@ 8039
mic@@ 8036
miss@@ 8036
urity 8031
conspir@@ 8007
noon 8005
oughly 7999
hic@@ 7997
NAT@@ 7985
ó@@ 7976
know@@ 7976
rit 7976
import@@ 7956
dul@@ 7948
Consum@@ 7935
peti@@ 7933
ida 7915
Ale@@ 7885
Pakist@@ 7866
did@@ 7851
phil@@ 7838
bab@@ 7838
nific@@ 7834
tol@@ 7821
eda 7817
chea@@ 7793
Guar@@ 7791
stoc@@ 7785
bank@@ 7772
addi@@ 7771
effici@@ 7770
bery 7735
remo@@ 7717
Penn@@ 7714
marri@@ 7667
Ya@@ 7614
secu@@ 7607
NF@@ 7581
escap@@ 7581
Analy@@ 7579
aste 7577
Call 7570
ucl@@ 7550
elector@@ 7537
gram 7535
esp@@ 7519
astron@@ 7485
monit@@ 7481
ouses 7476
Commer@@ 7475
zu@@ 7446
terr@@ 7446
beh@@ 7415
idly 7402
wom@@ 7387
maxim@@ 7385
norm@@ 7373
perman@@ 7362
Ukra@@ 7358
chang@@ 7354
cial 7351
uals 7342
attit@@ 7295
Inv@@ 7288
Sau@@ 7279
abe@@ 7256
eval@@ 7255
ocr@@ 7243
bassador 7227
level@@ 7190
wan 7156
Squ@@ 7150
exac@@ 7144
Nad@@ 7142
Satur@@ 7142
neys 7139
Premi@@ 7139
tom 7132
pus 7113
Canadi@@ 7103
Vict@@ 7098
Scot@@ 7075
Wester@@ 7074
sewhere 7064
Hill@@ 7054
xi@@ 7029
Wash@@ 7002
Nev@@ 7002
preh@@ 6990
tournam@@ 6990
itarian 6987
tici@@ 6985
atistics 6983
ING@@ 6977
ilies 6973
cc@@ 6966
collap@@ 6936
world@@ 6925
Stand@@ 6897
Capit@@ 6868
preme 6865
eared 6854
Matthe@@ 6849
alition 6849
tress 6834
knoc@@ 6822
evac@@ 6809
los 6795
evin 6790
Toy@@ 6764
spects 6759
afford@@ 6757
regim@@ 6756
adequ@@ 6751
tegr@@ 6730
centr@@ 6730
specific@@ 6728
Chic@@ 6726
Atl@@ 6721
cum@@ 6718
achi@@ 6717
wed@@ 6715
mark@@ 6710
ellow 6692
him@@ 6670
certain@@ 6604
four@@ 6598
Rep@@ 6595
cruc@@ 6582
abe 6582
uti@@ 6582
gby 6541
unic@@ 6513
elebr@@ 6496
bedro@@ 6461
Gul@@ 6441
suffici@@ 6426
bell 6421
econ@@ 6414
repres@@ 6414
cement 6399
hus@@ 6372
sier 6335
tels 6301
dram@@ 6286
nic 6281
uclear 6281
seri@@ 6263
Augu@@ 6255
uters 6254
f-@@ 6249
Tenn@@ 6227
nis 6226
forcement 6203
isco 6198
Chel@@ 6190
answ@@ 6181
derly 6164
Yanke@@ 6158
seven@@ 6156
Develop@@ 6155
simp@@ 6076
gether 6069
Zimbab@@ 6057
impres@@ 6045
dedic@@ 6031
c. 6023
correspond@@ 6020
notic@@ 6016
thering 6013
satell@@ 5988
® 5973
ñ@@ 5964
sident 5944
Viet@@ 5940
hol 5936
assess@@ 5924
Offici@@ 5916
thly 5910
surviv@@ 5868
ü@@ 5853
mom@@ 5841
lux@@ 5824
Turk@@ 5799
rism 5784
Organi@@ 5783
Australi@@ 5778
exi@@ 5766
guid@@ 5760
sphere 5736
probl@@ 5736
scrut@@ 5732
necess@@ 5723
tech@@ 5693
p. 5691
lips 5690
bomb@@ 5671
joy@@ 5664
sustain@@ 5662
Youn@@ 5656
individ@@ 5655
profession@@ 5627
expan@@ 5619
asion 5612
alogue 5600
Yan@@ 5595
lege 5567
ither 5560
stit@@ 5559
circum@@ 5557
utch 5552
fore 5549
vulner@@ 5548
princip@@ 5515
cast@@ 5512
Wom@@ 5473
Brook@@ 5465
Hosp@@ 5450
mpi@@ 5446
ricket 5415
oughout 5382
Ahm@@ 5373
Radi@@ 5368
leagues 5357
Cali@@ 5340
surr@@ 5327
Lincol@@ 5324
weal@@ 5313
orist 5286
Anton@@ 5278
onz@@ 5262
mode@@ 5254
fur 5254
Lew@@ 5249
Publi@@ 5225
remark@@ 5219
excell@@ 5197
religi@@ 5190
rish 5175
ul 5172
ecu@@ 5149
compreh@@ 5113
Mexic@@ 5099
esters 5093
stim@@ 5090
plom@@ 5087
civ@@ 5079
oft 5065
tention 5048
pment 5042
Aff@@ 5031
anta 5016
tract 4995
eover 4994
Kab@@ 4970
veter@@ 4962
other@@ 4941
itan 4931
Oly@@ 4930
Secon@@ 4918
Isra@@ 4908
bition 4905
had@@ 4897
Jose@@ 4891
detain@@ 4868
elim@@ 4863
hosp@@ 4863
estic 4851
tware 4851
orm@@ 4810
anci@@ 4806
rements 4801
coc@@ 4761
Simp@@ 4759
atin 4757
landsc@@ 4753
beauti@@ 4736
iry 4704
portfol@@ 4698
watch@@ 4686
unve@@ 4649
tril@@ 4643
accus@@ 4613
sharp@@ 4594
U.S.@@ 4592
incre@@ 4559
ticip@@ 4554
so-@@ 4553
ç@@ 4531
omet@@ 4512
birth@@ 4498
castle 4498
stead 4481
goti@@ 4476
< 4473
Ara@@ 4466
chestr@@ 4466
Camer@@ 4449
gir@@ 4444
clai@@ 4443
uty 4442
entional 4440
unities 4439
atters 4433
fut@@ 4424
utely 4420
apers 4418
ensive 4409
ö@@ 4402
weap@@ 4400
estim@@ 4400
senal 4390
ministr@@ 4349
civili@@ 4343
iday 4336
turers 4331
use@@ 4328
aylor 4282
percent@@ 4281
N. 4253
It@@ 4250
unior 4247
tec@@ 4218
Palest@@ 4216
liam@@ 4185
teen@@ 4169
oup 4165
stems 4148
Cz@@ 4142
midd@@ 4130
acity 4120
has@@ 4100
Sovi@@ 4092
Swed@@ 4090
dership 4069
ment-@@ 4066
uli@@ 4062
ego 4056
edn@@ 4055
partis@@ 4054
Zim@@ 4040
Cub@@ 4034
Foo@@ 4032
ld 3978
hman 3975
withdraw@@ 3969
spired 3965
ub 3963
bare@@ 3960
valent 3953
ribu@@ 3938
mas 3933
cise 3909
eful@@ 3903
nut@@ 3895
Cath@@ 3889
teleph@@ 3870
extra@@ 3868
uary 3862
dat@@ 3857
hm@@ 3851
lywood 3846
liamentary 3802
propos@@ 3782
hai 3778
Accor@@ 3774
Micha@@ 3771
opport@@ 3756
pip@@ 3748
Phili@@ 3706
Prosecut@@ 3697
proced@@ 3696
yland 3665
denly 3663
Dub@@ 3645
famili@@ 3627
Tele@@ 3627
your@@ 3622
beha@@ 3590
tained 3589
atell@@ 3574
bean 3574
entially 3569
Amer@@ 3557
Centr@@ 3516
abeth 3508
ucky 3506
Olymp@@ 3499
ities 3498
vul@@ 3494
ateg@@ 3488
ologi@@ 3480
memb@@ 3477
bas 3472
ode 3423
Bloom@@ 3417
Tube 3414
abs@@ 3412
relev@@ 3408
nam 3396
amo 3391
iPh@@ 3367
allas 3355
usu@@ 3342
eases 3335
Educ@@ 3321
tish 3319
ois 3301
orrow 3301
ension 3287
sition 3274
camer@@ 3274
atmo@@ 3267
moment@@ 3266
crack@@ 3265
stern 3250
kitch@@ 3240
ketball 3236
wonder@@ 3232
Flor@@ 3220
ward-@@ 3201
begin@@ 3197
ule 3174
Prosec@@ 3165
controversi@@ 3161
ustice 3156
infra@@ 3155
Qa@@ 3145
Guant@@ 3136
lars 3124
Auth@@ 3116
menti@@ 3097
enorm@@ 3090
Execu@@ 3083
strate@@ 3072
Braz@@ 3035
INGTON 3035
profes@@ 3033
Lit@@ 3027
was@@ 3004
Ã 3004
‚ 2994
Jew@@ 2989
decla@@ 2988
crun@@ 2980
eces 2965
ayl@@ 2963
knowl@@ 2945
Foot@@ 2945
slau@@ 2914
victim@@ 2907
zai 2903
orneys 2900
kra@@ 2887
consen@@ 2876
Tali@@ 2866
wer@@ 2853
lyn 2853
assy 2852
Afghan@@ 2851
bench@@ 2848
ept@@ 2845
Connec@@ 2836
ewer 2830
Cardi@@ 2828
girl@@ 2822
Harv@@ 2821
lantic 2817
lv@@ 2816
Republic@@ 2810
reput@@ 2804
vil 2800
ov. 2795
sler 2794
offici@@ 2769
terror@@ 2733
invol@@ 2731
burgh 2720
Bagh@@ 2716
rels 2709
effor@@ 2671
ouldn 2631
complet@@ 2624
isi@@ 2619
Christop@@ 2617
gus@@ 2609
pically 2606
icop@@ 2599
edings 2572
mob@@ 2555
Kos@@ 2539
oline 2536
ilian 2536
Qaida 2534
iscal 2526
custo@@ 2523
circumst@@ 2517
offic@@ 2511
raig 2501
Pak@@ 2495
Sach@@ 2492
Virgini@@ 2488
Rei@@ 2487
come@@ 2485
¶ 2451
tcy 2440
restruc@@ 2432
sels 2415
agno@@ 2404
oughts 2397
Nicol@@ 2392
versities 2382
Academ@@ 2381
onym@@ 2380
Jap@@ 2372
selves 2358
demon@@ 2316
igno@@ 2309
ward-looking 2296
cil 2273
Pent@@ 2268
stol@@ 2264
exic@@ 2259
Treas@@ 2245
â 2228
pson 2227
Spea@@ 2217
bigg@@ 2209
barre@@ 2204
posure 2195
figh@@ 2193
abet@@ 2178
Bid@@ 2173
· 2171
Bhut@@ 2167
 2156
à 2151
iland 2149
thes 2148
sored 2131
ë@@ 2125
abo@@ 2124
Fred@@ 2118
enda 2097
got@@ 2094
urch 2093
abetes 2091
ovi@@ 2059
ASH@@ 2050
.co.@@ 2041
Protec@@ 2040
versary 2038
Zeal@@ 2029
ancell@@ 2027
taxpay@@ 2020
Rodri@@ 2018
ú@@ 2016
Detro@@ 2016
U.S@@ 2013
echan@@ 2010
etings 1988
rimin@@ 1987
ô@@ 1986
ovo 1985
politici@@ 1965
Vene@@ 1963
Glas@@ 1960
stren@@ 1955
Kent@@ 1925
partment 1910
ebook 1892
eler@@ 1879
restaur@@ 1861
usti@@ 1838
ï@@ 1838
ä@@ 1827
repor@@ 1800
athan 1771
â@@ 1768
¢ 1760
approxim@@ 1738
.com@@ 1732
bey@@ 1731
dev 1720
resul@@ 1712
prene@@ 1705
LES 1698
Thurs@@ 1692
promis@@ 1692
illance 1676
eff 1674
esn 1669
Wedn@@ 1669
raf 1662
graphi@@ 1654
DON 1654
Mahm@@ 1648
nowl@@ 1644
Barcl@@ 1636
secon@@ 1632
particul@@ 1626
Ahmad@@ 1616
feat@@ 1615
Commit@@ 1614
ople 1610
LON@@ 1609
aught 1607
decre@@ 1603
liminary 1587
intell@@ 1580
homa 1572
Geor@@ 1559
Veri@@ 1559
testim@@ 1554
entre@@ 1535
atedly 1530
jad 1521
vehic@@ 1500
eij@@ 1493
til 1491
overei@@ 1489
intro@@ 1480
ê@@ 1480
hid@@ 1475
Stew@@ 1470
First@@ 1470
orado 1440
● 1436
tenance 1425
mong 1414
Qai@@ 1401
Huck@@ 1400
ã@@ 1396
etro@@ 1385
deg@@ 1383
areness 1377
whel@@ 1355
ongside 1347
Beij@@ 1344
vement 1340
Shang@@ 1337
Liver@@ 1332
É@@ 1331
Brus@@ 1324
adel@@ 1318
occupi@@ 1317
Michi@@ 1295
sud@@ 1293
Bh@@ 1288
Giuli@@ 1286
daugh@@ 1282
á 1271
bilities 1265
hil 1254
duce 1253
Hugh@@ 1241
^ 1240
Illin@@ 1238
hatt@@ 1235
à@@ 1231
sparen@@ 1230
anium 1199
seum 1198
proper@@ 1190
Ariz@@ 1188
guardi@@ 1156
degre@@ 1148
inet 1135
Iow@@ 1132
leans 1132
Paci@@ 1128
touri@@ 1127
reland 1116
Tig@@ 1112
Secu@@ 1108
¾ 1097
Mitch@@ 1096
mise 1095
Y. 1095
hoo 1084
adem@@ 1084
guaran@@ 1078
diffic@@ 1076
Teh@@ 1068
¼ 1065
Octo@@ 1063
Á@@ 1059
guez 1058
Pitt@@ 1058
complain@@ 1056
Mini@@ 1054
ques@@ 1052
Eliz@@ 1051
Pennsylv@@ 1043
¿ 1040
targ@@ 1017
accompani@@ 1014
toms 1001
disci@@ 995
Tennes@@ 986
osi 979
ahu 975
Edin@@ 972
rill 969
Distr@@ 967
dred 967
missil@@ 929
ó 927
letes 922
Easter@@ 921
www@@ 921
Toky@@ 916
Ohi@@ 900
ilities 894
Pitts@@ 893
\ 876
Oreg@@ 866
Offic@@ 866
newsp@@ 863
referend@@ 853
soldi@@ 853
Ano@@ 850
Nether@@ 839
° 837
haps 837
tim 832
Philadelphi@@ 827
assin@@ 827
mingham 827
Serv@@ 823
prosecut@@ 817
ww@@ 804
~ 803
í 797
Austr@@ 796
Sept@@ 794
immedi@@ 793
contro@@ 790
thusi@@ 772
pread 769
ANGE@@ 763
PRNewswire-@@ 757
Orland@@ 756
osen 751
î@@ 748
gow 743
orture 740
2n@@ 738
Ital@@ 733
busin@@ 707
Mug@@ 702
ether 699
Minnes@@ 694
Alab@@ 678
Cari@@ 677
achu@@ 674
Palestini@@ 661
crete 651
Anth@@ 644
Mr@@ 636
rote 634
spok@@ 633
‑ 620
.co@@ 613
guardian@@ 606
¥ 593
´ 587
Ira@@ 587
onship 584
ampa 581
espread 571
youn@@ 568
Clevel@@ 563
dren 559
Okla@@ 554
istic@@ 553
limin@@ 544
ø@@ 543
ë 538
Manhatt@@ 538
Micros@@ 533
Louisi@@ 530
© 526
org 508
chise 507
Massachu@@ 499
sylv@@ 493
versy 493
retail@@ 492
Phoeni@@ 476
Newswire 468
Í@@ 462
ORK 448
relation@@ 435
drai@@ 423
inejad 421
helicop@@ 421
estig@@ 420
Uta@@ 418
increas@@ 411
previ@@ 406
Connectic@@ 397
hagen 394
annel 388
Barcel@@ 380
convin@@ 378
provid@@ 377
scho@@ 368
uct@@ 361
FirstCall 361
obvi@@ 360
consecu@@ 354
Devel@@ 352
Mushar@@ 351
charac@@ 345
WASH@@ 342
Virg@@ 341
passeng@@ 340
Switzer@@ 336
¬ 335
irman 330
beral 325
htt@@ 317
Fergus@@ 317
alem 313
Sarko@@ 310
} 301
ú 300
« 300
Econ@@ 287
Nasda@@ 284
{ 276
anke 271
Febru@@ 271
Myan@@ 267
welcom@@ 266
signation 265
Feb@@ 264
¤ 263
aily 258
™ 251
Jerus@@ 234
Carib@@ 226
estival 224
ï 224
esday 224
appear@@ 223
setts 222
orney 221
è 219
Ç@@ 217
timore 215
devel@@ 210
ophistic@@ 209
gare@@ 203
û@@ 200
º@@ 195
′ 190
å@@ 184
thern 181
oppon@@ 179
ô 177
 177
ù 173
Switz@@ 168
ecially 167
teenag@@ 165
♫ 162
done@@ 157
Ö@@ 155
moil 155
É 154
Netany@@ 154
unpreced@@ 153
Copen@@ 143
Ó@@ 139
† 138
¡ 137
swire 137
volun@@ 133
attemp@@ 132
ò 130
‐ 130
adium 128
ì 121
ı@@ 111
athered 109
adelphi@@ 109
Huckabe@@ 108
becom@@ 107
includ@@ 106
× 102
expec@@ 100
¹ 100
ò@@ 98
æ@@ 98
ö 97
.m. 94
ﬁ@@ 93
Guantan@@ 91
Mosco@@ 89
chall@@ 89
Á 88
sched@@ 86
apore 85
ŵ@@ 83
estab@@ 81
Apri@@ 78
Ü@@ 78
Å@@ 77
neigh@@ 76
− 76
pupil@@ 73
Î@@ 72
♥ 71
Ã@@ 70
ü 69
 68
Â@@ 67
― 65
ć 65
Š@@ 65
§ 63
 63
→ 61
² 59
 55
ŷ 55
ê 54
apparen@@ 54
ˆ 53
ð@@ 52
Ñ@@ 51
Musli@@ 51
ä 51
À 50
‟ 49
Ø@@ 49
Ê@@ 47
， 47
ŷ@@ 47
overn@@ 47
º 45
ł@@ 44
ø 44
pite 42
ì@@ 41
ﬂ@@ 41
ù@@ 41
。 41
š@@ 39
viron@@ 39
ancial 39
ń@@ 39
 37
ç 36
õ@@ 35
 34
Þ 34
ã 34
ž@@ 34
È@@ 32
￡ 32
Ó 32
﻿ 32
Ä@@ 32
Å 32
是@@ 32
progr@@ 32
¨ 31
 31
─ 30
国@@ 30
ﬀ@@ 30
ß@@ 29
藏@@ 29
å 29
ÿ@@ 28
Í 28
± 28
西@@ 26
⁈ 26
♪ 26
 25
Ï@@ 25
Ú@@ 25
Ô@@ 24
˚ 23
■ 23
的@@ 23
ƒ@@ 22
ÿ 22
 22
ﬀ 22
ą@@ 21
³ 21
中@@ 21
 20
и@@ 20
★ 19
不@@ 19
¦ 19
û 19
人@@ 19
ˇ@@ 19
Medve@@ 18
 18
 18
₤ 18
Ö 17
 17
ż@@ 17
lobal 17
ś@@ 17
Š 17
č@@ 17
Ç 16
✤ 16
Þ@@ 16
Ò@@ 16
ʻ@@ 15
Ý@@ 15
о@@ 15
Ê 15
À@@ 15
р@@ 15
retary 15
Æ@@ 15
ę 14
Ø 14
􀂄 14
ğ@@ 14
₂ 13
î 13
š 13
♠ 13
ا@@ 13
ı 13
Ş@@ 12
 12
 12
事@@ 12
а@@ 12
ā@@ 12
∧ 12
这@@ 12
distri@@ 12
с@@ 11
ş@@ 11
œ@@ 11
ý 11
ý@@ 11
µ@@ 11
recog@@ 11
н@@ 11
Ì@@ 11
‪ 11
ministration 11
ð 11
õ 11
个@@ 10
е@@ 10
ﬃ@@ 10
≠ 10
要@@ 10
㩠@@ 10
ě@@ 10
⁄ 10
‬ 10
一@@ 10
÷ 10
北@@ 10
ﬁ 10
Ð@@ 10
ń 10
你@@ 10
п@@ 9
所 9
ر@@ 9
律@@ 9
ę@@ 9
ł 9
 9
民@@ 9
㧡@@ 9
ن@@ 9
PRNewswi@@ 9
м@@ 9
在@@ 9
​ 9
‹ 9
в@@ 9
师@@ 9
Egy@@ 9
¸ 9
国 8
oundation 8
ą 8
ß 8
自@@ 8
务@@ 8
√ 8
а 8
Ñ 8
我@@ 8
ي@@ 8
⃜ 8
􀀗 7
Ï 7
ο@@ 7
д@@ 7
􀁑 7
ƒ 7
Õ@@ 7
ه 7
у@@ 7
π@@ 7
㧯@@ 7
族@@ 7
有@@ 7
独@@ 7
帝@@ 7
京@@ 7
İ@@ 7
Ù@@ 6
了@@ 6
т@@ 6
А 6
α@@ 6
和@@ 6
τ@@ 6
人 6
 6
Ä 6
 6
可@@ 6
们@@ 6
 6
د@@ 6
为@@ 6
Ý 6
⋅ 6
♦ 6
‡ 6
 6
⅓ 6
到@@ 5
非@@ 5
gressional 5
ب@@ 5
م@@ 5
ε@@ 5
о 5
Č@@ 5
π 5
ي 5
来@@ 5
✈ 5
È 5
Ë@@ 5
历@@ 5
 5
ё@@ 5
owever 5
› 5
ř@@ 5
˘ 5
姻@@ 5
 5
embly 5
я 5
ldn 5
所@@ 5
μ@@ 5
 5
ك@@ 5
市@@ 5
李@@ 5
¯ 5
Ś@@ 5
立 5
к@@ 5
） 5
婚@@ 5
生 5
部@@ 4
م 4
 4
青 4
经@@ 4
Ú 4
 4
ت@@ 4
ñ 4
被@@ 4
以@@ 4
由 4
л@@ 4
的 4
Ÿ@@ 4
т 4
带@@ 4
Е@@ 4
并@@ 4
ż 4
 4
∆ 4
 4
PRNew@@ 4
 4
会@@ 4
⅔ 4
想@@ 4
㩢@@ 4
ś 4
Ž@@ 4
ž 4
ederal 4
英@@ 4
‎ 4
و@@ 4
将@@ 4
认@@ 3
Т@@ 3
σ@@ 3
 3
П@@ 3
Ë 3
： 3
死@@ 3
􀂃 3
ش@@ 3
æ 3
θ@@ 3
华@@ 3
ا 3
相@@ 3
因@@ 3
đ@@ 3
分 3
取@@ 3
主@@ 3
立@@ 3
导@@ 3
真@@ 3
压@@ 3
❤ 3
现@@ 3
β@@ 3
（ 3
ه@@ 3
˜ 3
生@@ 3
对@@ 3
得@@ 3
ª 3
ˈ@@ 3
anwhile 3
 3
Î 3
ć@@ 3
󱯠 3
⅛ 3
 3
ĕ@@ 3
信@@ 3
Û@@ 3
Ł@@ 3
♣ 3
ː@@ 3
ς 3
ə@@ 3
ō@@ 3
ь@@ 3
愿@@ 3
运@@ 3
都@@ 3
þ@@ 3
愤@@ 3
ρ@@ 3
λ@@ 3
际@@ 3
否@@ 3
同@@ 3
ع@@ 3
统@@ 3
题@@ 3
观@@ 3
香@@ 3
ş 3
兰@@ 3
ν@@ 3
ί@@ 3
金@@ 3
ά@@ 3
ح@@ 3
平 3
з@@ 3
族 3
史 3
← 3
󱯬 3
USNewswire 3
问@@ 3
永@@ 3
已@@ 2
属@@ 2
唐@@ 2
∫ 2
≥ 2
 2
张@@ 2
Σ 2
ж@@ 2
古@@ 2
ز 2
㩥 2
己@@ 2
в 2
考@@ 2
س@@ 2
使@@ 2
直@@ 2
 2
发@@ 2
或@@ 2
ц@@ 2
但@@ 2
过@@ 2
С@@ 2
☆ 2
多@@ 2
☑ 2
چ@@ 2
د 2
liament 2
Я 2
子 2
Ω 2
辱 2
ل@@ 2
ز@@ 2
Σ@@ 2
占@@ 2
政@@ 2
然@@ 2
应@@ 2
 2
µ 2
迫@@ 2
大@@ 2
㨲 2
五@@ 2
天@@ 2
∨ 2
样@@ 2
少@@ 2
共@@ 2
里 2
港@@ 2
Л 2
ĉ@@ 2
گ@@ 2
理 2
㩬@@ 2
意@@ 2
þ 2
信 2
Ô 2
度@@ 2
Ұ@@ 2
у 2
年@@ 2
􀀂 2
没@@ 2
重@@ 2
点 2
韩@@ 2
良@@ 2
㧡 2
也@@ 2
高@@ 2
ĝ 2
京 2
说 2
实@@ 2
感@@ 2
举@@ 2
и 2
日@@ 2
教@@ 2
己 2
я@@ 2
民 2
≈ 2
据@@ 2
‏ 2
勇 2
ǧ@@ 2
ق@@ 2
望@@ 2
刘@@ 2
组@@ 2
于@@ 2
∞ 2
久@@ 2
志@@ 2
更@@ 2
㩣@@ 2
м 2
Л@@ 2
亡 2
远@@ 2
许@@ 2
ϋ@@ 2
ạ@@ 2
江@@ 2
藏 2
＂ 2
ι@@ 2
ấ@@ 2
Ｏ@@ 2
富 2
接@@ 2
و 2
К@@ 2
Ż@@ 2
ī@@ 2
动@@ 2
点@@ 2
望 2
年 2
即@@ 2
会 2
本@@ 2
青@@ 2
受@@ 2
治@@ 2
й 2
争@@ 2
ь 2
求@@ 2
ĕ 2
仍@@ 2
格@@ 2
خ@@ 2
印 2
蒙@@ 2
α 2
г@@ 2
 2
海 2
前@@ 1
图@@ 1
解@@ 1
№ 1
‫ 1
ἱ@@ 1
▃ 1
阅@@ 1
郎@@ 1
С 1
ū 1
欣@@ 1
察@@ 1
学 1
相 1
记 1
黄@@ 1
透@@ 1
傑@@ 1
文@@ 1
Ｆ 1
粑 1
 1
仓@@ 1
什@@ 1
海@@ 1
济@@ 1
杀 1
队 1
ύ@@ 1
错@@ 1
ů 1
あ@@ 1
能@@ 1
Ｐ@@ 1
ˆ@@ 1
⅝ 1
㭡 1
凯 1
ự 1
百@@ 1
读@@ 1
傲@@ 1
ρ 1
な@@ 1
Ｉ@@ 1
葉@@ 1
㨲@@ 1
ė@@ 1
王@@ 1
军@@ 1
换@@ 1
数@@ 1
清@@ 1
控@@ 1
府@@ 1
力@@ 1
府 1
奋@@ 1
治 1
误@@ 1
面@@ 1
 1
О@@ 1
知@@ 1
宁@@ 1
军 1
加@@ 1
养@@ 1
韦@@ 1
㠭@@ 1
安@@ 1
欢 1
廉@@ 1
士 1
Є@@ 1
 1
预@@ 1
管@@ 1
核@@ 1
益 1
焦@@ 1
糍@@ 1
󴴥 1
刚@@ 1
ض@@ 1
▋ 1
异 1
义@@ 1
虑@@ 1
隆@@ 1
辰@@ 1
б@@ 1
󼤥 1
Ù 1
兵 1
 1
领@@ 1
上 1
希@@ 1
洲@@ 1
世@@ 1
Φ@@ 1
ā 1
無 1
鸿 1
提@@ 1
㡢@@ 1
с 1
‗ 1
持@@ 1
 1
ق 1
于 1
代@@ 1
问 1
米 1
ة 1
喜@@ 1
㩤@@ 1
者@@ 1
▂ 1
博@@ 1
个 1
ό@@ 1
Θ 1
Ｔ 1
基@@ 1
和 1
视@@ 1
ə 1
 1
服@@ 1
⿿ 1
④ 1
浦@@ 1
Ｎ@@ 1
Ň@@ 1
ｏ 1
㩭@@ 1
热 1
س 1
去 1
舜@@ 1
士@@ 1
其@@ 1
ε 1
ĉ 1
▊ 1
跨@@ 1
で@@ 1
∈ 1
㮴@@ 1
印@@ 1
㩶@@ 1
ن 1
热@@ 1
ư@@ 1
出@@ 1
他@@ 1
币@@ 1
Ì 1
渴@@ 1
▆ 1
ỏ 1
☂ 1
机@@ 1
ˇ 1
č 1
哪@@ 1
二@@ 1
巴 1
制@@ 1
х@@ 1
分@@ 1
峡@@ 1
ị@@ 1
󶲧 1
ι 1
󼤤 1
兴 1
󼬬 1
成@@ 1
奥@@ 1
鸣@@ 1
三@@ 1
抱@@ 1
静@@ 1
还@@ 1
Н@@ 1
榜@@ 1
言 1
概@@ 1
广@@ 1
ﬃ 1
需@@ 1
顶@@ 1
㩥@@ 1
钱 1
田 1
决 1
示@@ 1
解 1
损@@ 1
盘@@ 1
品 1
下 1
淹@@ 1
晦 1
й@@ 1
害@@ 1
η@@ 1
六@@ 1
心@@ 1
稳@@ 1
上@@ 1
ю 1
▅ 1
☃ 1
ك 1
▇ 1
毛 1
贵@@ 1
ª@@ 1
󱯻 1
無@@ 1
义 1
▁ 1
杂 1
 1
ч@@ 1
时@@ 1
✭ 1
怎@@ 1
㨱@@ 1
󳮠 1
远 1
无@@ 1
骄@@ 1
从@@ 1
韬@@ 1
ė 1
▉ 1
根@@ 1
强 1
金 1
谣@@ 1
港 1
ی@@ 1
财@@ 1
ʒ@@ 1
ē@@ 1
ả 1
δ@@ 1
Ü 1
变@@ 1
权@@ 1
告@@ 1
比@@ 1
值@@ 1
㩮@@ 1
ữ@@ 1
じ@@ 1
辽@@ 1
外@@ 1
么 1
ũ@@ 1
文 1
迫 1
说@@ 1
单@@ 1
谢@@ 1
程@@ 1
春@@ 1
试@@ 1
号@@ 1
ы 1
▄ 1
、 1
巍 1
织@@ 1
欧@@ 1
い 1
改@@ 1
Γ@@ 1
㤵@@ 1
↑ 1
为 1
冰 1
登@@ 1
丹@@ 1
Ž 1
也 1
车@@ 1
合@@ 1
如@@ 1
汇@@ 1
四@@ 1
龙@@ 1
林 1
关@@ 1
质@@ 1
必@@ 1
千@@ 1
雅@@ 1
گ 1
₀ 1
觉@@ 1
∂ 1
Φ 1
偷@@ 1
󼴳 1
󼫲 1
狗 1
辉 1
Ἡ@@ 1
В@@ 1
ů@@ 1
К 1
杨@@ 1
λ 1
玥 1
р 1
Г@@ 1
兴@@ 1
何 1
类 1
А@@ 1
㡮@@ 1
ă 1
ゃ@@ 1
朗 1
念 1
ű@@ 1
情@@ 1
谁@@ 1
孙@@ 1
温@@ 1
只@@ 1
歉 1
淇 1
名 1
㠠@@ 1
黑@@ 1
ᾱ@@ 1
糯@@ 1
亚 1
瑞@@ 1
雄@@ 1
言@@ 1
在 1
е 1
ņ@@ 1
请@@ 1
毫@@ 1
щ@@ 1
粪@@ 1
鰴 1
挟 1
新 1
复@@ 1
没 1
史@@ 1
方@@ 1
ơ@@ 1
么@@ 1
货@@ 1
简@@ 1
ш 1
敦@@ 1
？ 1
 1
该@@ 1
诉@@ 1
界@@ 1
反@@ 1
к 1
量 1
战@@ 1
整@@ 1
Р@@ 1
构@@ 1
样 1
好@@ 1
≇ 1
₁ 1
嘴@@ 1
报 1
㧵@@ 1
黎@@ 1
ź 1
实 1
纲@@ 1
优@@ 1
▌ 1
向@@ 1
㨬 1
 1
饼@@ 1
ت 1
█ 1
え@@ 1
ʽ@@ 1
κ@@ 1
耻@@ 1
口@@ 1
例@@ 1
支@@ 1
况@@ 1
㤮@@ 1
现 1
Ò 1
致@@ 1
定 1
光@@ 1
道@@ 1
燕@@ 1
事 1
˛ 1
那@@ 1
吉@@ 1
展@@ 1
活@@ 1
ث@@ 1
Ἁ@@ 1
波 1
件 1
